{
  "version": "1.0",
  "truncation": {
    "direction": "Right",
    "max_length": 256,
    "strategy": "LongestFirst",
    "stride": 0
  },
  "padding": {
    "strategy": {
      "Fixed": 256
    },
    "direction": "Right",
    "pad_to_multiple_of": null,
    "pad_id": 0,
    "pad_type_id": 0,
    "pad_token": "[PAD]"
  },
  "added_tokens": [
    {
      "id": 0,
      "content": "[PAD]",
      "single_word": false,
      "lstrip": false,
      "rstrip": false,
      "normalized": false,
      "special": true
    },
    {
      "id": 1,
      "content": "[UNK]",
      "single_word": false,
      "lstrip": false,
      "rstrip": false,
      "normalized": false,
      "special": true
    },
    {
      "id": 2,
      "content": "[CLS]",
      "single_word": false,
      "lstrip": false,
      "rstrip": false,
      "normalized": false,
      "special": true
    },
    {
      "id": 3,
      "content": "[SEP]",
      "single_word": false,
      "lstrip": false,
      "rstrip": false,
      "normalized": false,
      "special": true
    },
    {
      "id": 4,
      "content": "[MASK]",
      "single_word": false,
      "lstrip": false,
      "rstrip": false,
      "normalized": false,
      "special": true
    }
  ],
  "normalizer": {
    "type": "BertNormalizer",
    "clean_text": true,
    "handle_chinese_chars": true,
    "strip_accents": null,
    "lowercase": false
  },
  "pre_tokenizer": {
    "type": "BertPreTokenizer"
  },
  "post_processor": {
    "type": "TemplateProcessing",
    "single": [
      {
        "SpecialToken": {
          "id": "[CLS]",
          "type_id": 0
        }
      },
      {
        "Sequence": {
          "id": "A",
          "type_id": 0
        }
      },
      {
        "SpecialToken": {
          "id": "[SEP]",
          "type_id": 0
        }
      }
    ],
    "pair": [
      {
        "SpecialToken": {
          "id": "[CLS]",
          "type_id": 0
        }
      },
      {
        "Sequence": {
          "id": "A",
          "type_id": 0
        }
      },
      {
        "SpecialToken": {
          "id": "[SEP]",
          "type_id": 0
        }
      },
      {
        "Sequence": {
          "id": "B",
          "type_id": 1
        }
      },
      {
        "SpecialToken": {
          "id": "[SEP]",
          "type_id": 1
        }
      }
    ],
    "special_tokens": {
      "[CLS]": {
        "id": "[CLS]",
        "ids": [
          2
        ],
        "tokens": [
          "[CLS]"
        ]
      },
      "[SEP]": {
        "id": "[SEP]",
        "ids": [
          3
        ],
        "tokens": [
          "[SEP]"
        ]
      }
    }
  },
  "decoder": {
    "type": "WordPiece",
    "prefix": "##",
    "cleanup": true
  },
  "model": {
    "type": "WordPiece",
    "unk_token": "[UNK]",
    "continuing_subword_prefix": "##",
    "max_input_chars_per_word": 100,
    "vocab": {
      "[PAD]": 0,
      "[UNK]": 1,
      "[CLS]": 2,
      "[SEP]": 3,
      "[MASK]": 4,
      ".": 5,
      "이": 6,
      "다": 7,
      "에": 8,
      "는": 9,
      "을": 10,
      "의": 11,
      "하": 12,
      "은": 13,
      "한": 14,
      "고": 15,
      "가": 16,
      "를": 17,
      ",": 18,
      "지": 19,
      "기": 20,
      "으": 21,
      "대": 22,
      "1": 23,
      "있": 24,
      "도": 25,
      "으로": 26,
      "했": 27,
      "2": 28,
      "사": 29,
      "에서": 30,
      "시": 31,
      "일": 32,
      "로": 33,
      "인": 34,
      "해": 35,
      "(": 36,
      "수": 37,
      "들": 38,
      ")": 39,
      "'": 40,
      "\"": 41,
      "과": 42,
      "전": 43,
      "아": 44,
      "것": 45,
      "그": 46,
      "어": 47,
      "보": 48,
      "만": 49,
      "정": 50,
      "적": 51,
      "자": 52,
      "부": 53,
      "주": 54,
      "등": 55,
      "경": 56,
      "3": 57,
      "게": 58,
      "위": 59,
      "나": 60,
      "와": 61,
      "중": 62,
      "공": 63,
      "라": 64,
      "년": 65,
      "제": 66,
      "개": 67,
      "면": 68,
      "상": 69,
      "할": 70,
      "조": 71,
      "원": 72,
      "된": 73,
      "여": 74,
      "되": 75,
      "국": 76,
      "·": 77,
      "서": 78,
      "관": 79,
      "었": 80,
      "선": 81,
      "한다": 82,
      "성": 83,
      "오": 84,
      "5": 85,
      "연": 86,
      "내": 87,
      "4": 88,
      "유": 89,
      "20": 90,
      "모": 91,
      "소": 92,
      "마": 93,
      "며": 94,
      "’": 95,
      "‘": 96,
      "비": 97,
      "미": 98,
      "세": 99,
      "월": 100,
      "최": 101,
      "신": 102,
      "말": 103,
      "명": 104,
      "“": 105,
      "”": 106,
      "분": 107,
      "%": 108,
      "않": 109,
      "구": 110,
      "방": 111,
      "회": 112,
      "우": 113,
      "발": 114,
      "뉴": 115,
      "없": 116,
      "때": 117,
      "김": 118,
      "통": 119,
      "동": 120,
      "6": 121,
      "생": 122,
      "교": 123,
      "안": 124,
      "현": 125,
      "강": 126,
      "거": 127,
      "문": 128,
      "스": 129,
      "차": 130,
      "한국": 131,
      "예": 132,
      "영": 133,
      "장": 134,
      "계": 135,
      "지난": 136,
      "무": 137,
      "까": 138,
      "실": 139,
      "당": 140,
      "진": 141,
      "던": 142,
      "화": 143,
      "까지": 144,
      "7": 145,
      "##00": 146,
      "받": 147,
      "달": 148,
      "결": 149,
      "8": 150,
      "바": 151,
      "=": 152,
      "-": 153,
      "단": 154,
      "재": 155,
      "올": 156,
      "후": 157,
      "불": 158,
      "감": 159,
      "았": 160,
      "9": 161,
      "에게": 162,
      "됐": 163,
      "노": 164,
      "입": 165,
      "더": 166,
      "지만": 167,
      "##니다": 168,
      "건": 169,
      "박": 170,
      "반": 171,
      "특": 172,
      "따": 173,
      "저": 174,
      "매": 175,
      "출": 176,
      "학": 177,
      "추": 178,
      "된다": 179,
      "대한": 180,
      "투": 181,
      "억": 182,
      "남": 183,
      "다는": 184,
      "배": 185,
      "10": 186,
      "##시스": 187,
      "서울": 188,
      "평": 189,
      "다고": 190,
      "또": 191,
      "날": 192,
      "면서": 193,
      "확": 194,
      "같": 195,
      "뉴시스": 196,
      "부터": 197,
      "씨": 198,
      "금": 199,
      "포": 200,
      "설": 201,
      "함": 202,
      "간": 203,
      "많": 204,
      "위해": 205,
      "처": 206,
      "밝": 207,
      "열": 208,
      "행": 209,
      "운": 210,
      "겠": 211,
      "프": 212,
      "언": 213,
      "기자": 214,
      "두": 215,
      "요": 216,
      "점": 217,
      "권": 218,
      "19": 219,
      "201": 220,
      "역": 221,
      "외": 222,
      "작": 223,
      "번": 224,
      "라고": 225,
      "허": 226,
      "알": 227,
      "물": 228,
      "참": 229,
      "200": 230,
      "c": 231,
      "라는": 232,
      "총": 233,
      "새": 234,
      "경기": 235,
      "증": 236,
      "대표": 237,
      "청": 238,
      "파": 239,
      "<": 240,
      "활": 241,
      "앞": 242,
      "직": 243,
      "초": 244,
      "때문": 245,
      "지역": 246,
      "미국": 247,
      "집": 248,
      "보다": 249,
      "사업": 250,
      "피": 251,
      "민": 252,
      "밝혔": 253,
      "못": 254,
      "타": 255,
      "산": 256,
      "통해": 257,
      "사람": 258,
      "임": 259,
      "~": 260,
      "기업": 261,
      "아니": 262,
      "체": 263,
      "우리": 264,
      "양": 265,
      "될": 266,
      "시장": 267,
      "종": 268,
      "정부": 269,
      "본": 270,
      "치": 271,
      "는데": 272,
      "판": 273,
      "형": 274,
      "대해": 275,
      "호": 276,
      "심": 277,
      "습": 278,
      "[": 279,
      "검": 280,
      "문제": 281,
      "]": 282,
      "였": 283,
      "높": 284,
      "co": 285,
      "뒤": 286,
      "각": 287,
      "합": 288,
      "관계": 289,
      "@": 290,
      "승": 291,
      "0": 292,
      "##ne": 293,
      "언론": 294,
      "함께": 295,
      "천": 296,
      "시간": 297,
      "및": 298,
      "북": 299,
      "좋": 300,
      "경우": 301,
      "음": 302,
      "리": 303,
      "##통령": 304,
      "뉴스": 305,
      "협": 306,
      "변": 307,
      "대통령": 308,
      "12": 309,
      "환": 310,
      "백": 311,
      "습니다": 312,
      "11": 313,
      "팀": 314,
      "그러": 315,
      "삼": 316,
      "필": 317,
      "맞": 318,
      "법": 319,
      "야": 320,
      "규": 321,
      "이상": 322,
      "##is": 323,
      "S": 324,
      "업": 325,
      "살": 326,
      "돼": 327,
      "드": 328,
      "교육": 329,
      "위원": 330,
      "가능": 331,
      "지원": 332,
      "중국": 333,
      "이번": 334,
      "데": 335,
      "이라": 336,
      "com": 337,
      "군": 338,
      "광": 339,
      "##통신": 340,
      "##권자": 341,
      "일본": 342,
      "약": 343,
      "목": 344,
      "세계": 345,
      "30": 346,
      "따라": 347,
      "코": 348,
      "경제": 349,
      "프로": 350,
      "으며": 351,
      "용": 352,
      "ne": 353,
      "##ws": 354,
      "관련": 355,
      "해야": 356,
      "저작": 357,
      "##000": 358,
      "복": 359,
      "이라고": 360,
      "크": 361,
      "손": 362,
      "채": 363,
      "`": 364,
      "의원": 365,
      "허브": 366,
      "저작권자": 367,
      "식": 368,
      "생각": 369,
      "news": 370,
      "C": 371,
      "##통신사": 372,
      "】": 373,
      "【": 374,
      "뉴시스통신사": 375,
      "속": 376,
      "newsis": 377,
      "이후": 378,
      "카": 379,
      "A": 380,
      "취": 381,
      "도록": 382,
      "이나": 383,
      "사회": 384,
      "투자": 385,
      "충": 386,
      "계획": 387,
      "편": 388,
      "15": 389,
      "가장": 390,
      "독": 391,
      "시작": 392,
      "표": 393,
      "순": 394,
      "농": 395,
      "위한": 396,
      "줄": 397,
      "잘": 398,
      "m": 399,
      "조사": 400,
      "현재": 401,
      "돌": 402,
      "아이": 403,
      "자신": 404,
      "국민": 405,
      "준": 406,
      "창": 407,
      "선수": 408,
      "최근": 409,
      "K": 410,
      "기록": 411,
      "후보": 412,
      "별": 413,
      "담": 414,
      "메": 415,
      "그러나": 416,
      "국내": 417,
      "근": 418,
      "진행": 419,
      "?": 420,
      "토": 421,
      "급": 422,
      "k": 423,
      "##레이": 424,
      "걸": 425,
      "사용": 426,
      "질": 427,
      "는다": 428,
      "만들": 429,
      "M": 430,
      "곳": 431,
      "모두": 432,
      "다른": 433,
      "필요": 434,
      "엔": 435,
      "/": 436,
      "큰": 437,
      "L": 438,
      ":": 439,
      "##지만": 440,
      "감독": 441,
      "예정": 442,
      "찾": 443,
      "느": 444,
      "논": 445,
      "온": 446,
      "넘": 447,
      "개발": 448,
      "결과": 449,
      "버": 450,
      "상황": 451,
      "문화": 452,
      "늘": 453,
      "특히": 454,
      "정도": 455,
      "전문": 456,
      "측": 457,
      "대상": 458,
      "축": 459,
      "태": 460,
      "눈": 461,
      "18": 462,
      "하지만": 463,
      "관계자": 464,
      "##스트": 465,
      "사진": 466,
      "사실": 467,
      "절": 468,
      "완": 469,
      "연구": 470,
      "패": 471,
      "책": 472,
      "누": 473,
      "홍": 474,
      "정치": 475,
      "국가": 476,
      "대학": 477,
      "폭": 478,
      "친": 479,
      "골": 480,
      "운영": 481,
      "라며": 482,
      "I": 483,
      "려": 484,
      "갖": 485,
      "브": 486,
      "이어": 487,
      "삼성": 488,
      "길": 489,
      "방송": 490,
      "활동": 491,
      "벌": 492,
      "T": 493,
      "영화": 494,
      "이용": 495,
      "16": 496,
      "13": 497,
      "##시아": 498,
      "평가": 499,
      "애": 500,
      "네": 501,
      "▲": 502,
      "베": 503,
      "##비스": 504,
      "힘": 505,
      "첫": 506,
      "관리": 507,
      "디": 508,
      "25": 509,
      "금융": 510,
      "병": 511,
      "니": 512,
      "기술": 513,
      "경찰": 514,
      "설명": 515,
      "효": 516,
      "트": 517,
      "북한": 518,
      "항": 519,
      "정책": 520,
      "사이": 521,
      "14": 522,
      "접": 523,
      "발표": 524,
      "들어": 525,
      "..": 526,
      "정보": 527,
      "회사": 528,
      "...": 529,
      "「": 530,
      "처럼": 531,
      "최고": 532,
      "으면": 533,
      "」": 534,
      "다양": 535,
      ">": 536,
      "학생": 537,
      "지금": 538,
      "철": 539,
      "하나": 540,
      "따르": 541,
      "끝": 542,
      "기관": 543,
      "규모": 544,
      "##운데": 545,
      "오후": 546,
      "이런": 547,
      "다시": 548,
      "참여": 549,
      "17": 550,
      "과정": 551,
      "향": 552,
      "머": 553,
      "P": 554,
      "볼": 555,
      "대회": 556,
      "추진": 557,
      "제공": 558,
      "동안": 559,
      "나타": 560,
      "인터": 561,
      "당시": 562,
      "가운데": 563,
      "결정": 564,
      "현대": 565,
      "서비스": 566,
      "그리": 567,
      "거나": 568,
      "50": 569,
      "달러": 570,
      "회장": 571,
      "주장": 572,
      "민주": 573,
      "교수": 574,
      "잡": 575,
      "글": 576,
      "막": 577,
      "한편": 578,
      "모습": 579,
      "학교": 580,
      "##랜드": 581,
      "째": 582,
      "커": 583,
      "국제": 584,
      "여성": 585,
      "국회": 586,
      "뿐": 587,
      "제품": 588,
      "가지": 589,
      "행사": 590,
      "그런": 591,
      "산업": 592,
      "##센터": 593,
      "기준": 594,
      "새로": 595,
      "공개": 596,
      "도시": 597,
      "열린": 598,
      "내용": 599,
      "선거": 600,
      "기대": 601,
      "D": 602,
      "홈": 603,
      "처음": 604,
      "판매": 605,
      "다음": 606,
      "B": 607,
      "쓰": 608,
      "시즌": 609,
      "21": 610,
      "률": 611,
      "놓": 612,
      "많이": 613,
      "빠": 614,
      "##인다": 615,
      "키": 616,
      "싶": 617,
      "24": 618,
      "##er": 619,
      "얼": 620,
      "이유": 621,
      "생활": 622,
      "테": 623,
      "100": 624,
      "F": 625,
      "이미": 626,
      "전망": 627,
      "##부터": 628,
      "##리아": 629,
      "성장": 630,
      "층": 631,
      "으나": 632,
      "t": 633,
      "자리": 634,
      "22": 635,
      "가격": 636,
      "증가": 637,
      "나라": 638,
      "갈": 639,
      "발생": 640,
      "알려": 641,
      "사건": 642,
      "부산": 643,
      "시설": 644,
      "확인": 645,
      "보이": 646,
      "##그램": 647,
      "오전": 648,
      "마련": 649,
      "모든": 650,
      "환경": 651,
      "시민": 652,
      "회의": 653,
      "밖": 654,
      "기간": 655,
      "극": 656,
      "##in": 657,
      "##on": 658,
      "##an": 659,
      "게임": 660,
      "플": 661,
      "경쟁": 662,
      "상승": 663,
      "포함": 664,
      "단체": 665,
      "중요": 666,
      "한다는": 667,
      "전국": 668,
      "G": 669,
      "떨": 670,
      "프로그램": 671,
      "상대": 672,
      "송": 673,
      "안전": 674,
      "예상": 675,
      "23": 676,
      "일부": 677,
      "40": 678,
      "먹": 679,
      "다가": 680,
      "입니다": 681,
      "레": 682,
      "관심": 683,
      "수준": 684,
      "범": 685,
      "최대": 686,
      "지방": 687,
      "핵": 688,
      "휴": 689,
      "클": 690,
      "낮": 691,
      "해서": 692,
      "황": 693,
      "운동": 694,
      "윤": 695,
      "직접": 696,
      "난": 697,
      "27": 698,
      "공동": 699,
      "준비": 700,
      "마음": 701,
      "26": 702,
      "듯": 703,
      "외국": 704,
      "만큼": 705,
      "없이": 706,
      "상태": 707,
      "울": 708,
      "발전": 709,
      "사랑": 710,
      "주민": 711,
      "요구": 712,
      "28": 713,
      "스타": 714,
      "쪽": 715,
      "실시": 716,
      "새로운": 717,
      "분석": 718,
      "확대": 719,
      "어려": 720,
      "피해": 721,
      "지적": 722,
      "구성": 723,
      "율": 724,
      "거래": 725,
      "장관": 726,
      "위원회": 727,
      "몰": 728,
      "입장": 729,
      "몸": 730,
      "개인": 731,
      "떠": 732,
      "##대로": 733,
      "터": 734,
      "중심": 735,
      "사고": 736,
      "검찰": 737,
      "수사": 738,
      "전체": 739,
      "J": 740,
      "중앙": 741,
      "돈": 742,
      "센터": 743,
      "너": 744,
      "##이트": 745,
      "생산": 746,
      "가족": 747,
      "성공": 748,
      "##주의": 749,
      "떨어": 750,
      "또한": 751,
      "E": 752,
      "건강": 753,
      "강조": 754,
      "페": 755,
      "강화": 756,
      "일반": 757,
      "s": 758,
      "##BC": 759,
      "특별": 760,
      "맡": 761,
      "시키": 762,
      "효과": 763,
      "대비": 764,
      "계속": 765,
      "여러": 766,
      "소비": 767,
      "##은행": 768,
      "잠": 769,
      "응": 770,
      "밀": 771,
      "한다고": 772,
      "보여": 773,
      "##학교": 774,
      "러": 775,
      "계약": 776,
      "상품": 777,
      "추가": 778,
      "긴": 779,
      "이야": 780,
      "경영": 781,
      "29": 782,
      "희": 783,
      "분야": 784,
      "개선": 785,
      "개월": 786,
      "그렇": 787,
      "구조": 788,
      "존": 789,
      "##or": 790,
      "주택": 791,
      "N": 792,
      "물론": 793,
      "인사": 794,
      "업체": 795,
      "캐": 796,
      "탈": 797,
      "현장": 798,
      "란": 799,
      "방문": 800,
      "199": 801,
      "탄": 802,
      "해외": 803,
      "루": 804,
      "혐": 805,
      "##전자": 806,
      "든": 807,
      "폐": 808,
      "##이스": 809,
      "엄": 810,
      "얻": 811,
      "침": 812,
      "이사": 813,
      "영향": 814,
      "건설": 815,
      "는지": 816,
      "악": 817,
      "어떤": 818,
      "내년": 819,
      "역시": 820,
      "못하": 821,
      "책임": 822,
      "은행": 823,
      "##어나": 824,
      "위원장": 825,
      "돌아": 826,
      "블": 827,
      "선정": 828,
      "귀": 829,
      "그리고": 830,
      "이야기": 831,
      "혐의": 832,
      "정상": 833,
      "활용": 834,
      "보인다": 835,
      "##진다": 836,
      "역사": 837,
      "어서": 838,
      "비롯": 839,
      "시대": 840,
      "자동": 841,
      "제도": 842,
      "작품": 843,
      "이름": 844,
      "육": 845,
      "평균": 846,
      "노력": 847,
      "고객": 848,
      "석": 849,
      "그래": 850,
      "배우": 851,
      "봉": 852,
      "뛰": 853,
      "주요": 854,
      "부분": 855,
      "풀": 856,
      "각각": 857,
      "유지": 858,
      "아직": 859,
      "왕": 860,
      "방식": 861,
      "『": 862,
      "훈": 863,
      "기존": 864,
      "더욱": 865,
      "다면": 866,
      "광주": 867,
      "자유": 868,
      "풍": 869,
      "왔": 870,
      "h": 871,
      "』": 872,
      "시스": 873,
      "노동": 874,
      "펼": 875,
      "공연": 876,
      "대부": 877,
      "31": 878,
      "보험": 879,
      "능": 880,
      "제주": 881,
      "관광": 882,
      "즐": 883,
      "에선": 884,
      "전했": 885,
      "행정": 886,
      "해결": 887,
      "아닌": 888,
      "유럽": 889,
      "##라이": 890,
      "방법": 891,
      "앞서": 892,
      "의미": 893,
      "팔": 894,
      "예산": 895,
      "나오": 896,
      "인터넷": 897,
      "씩": 898,
      "◇": 899,
      "제작": 900,
      "변화": 901,
      "부담": 902,
      "##en": 903,
      "실제": 904,
      "대구": 905,
      "답": 906,
      "시스템": 907,
      "보도": 908,
      "전문가": 909,
      "바로": 910,
      "공격": 911,
      "끌": 912,
      "뜻": 913,
      "혼": 914,
      "60": 915,
      "##마트": 916,
      "설치": 917,
      "▶": 918,
      "현지": 919,
      "안정": 920,
      "##파트": 921,
      "자금": 922,
      "우승": 923,
      "전략": 924,
      "위기": 925,
      "차례": 926,
      "어린": 927,
      "방안": 928,
      "이뤄": 929,
      "못했": 930,
      "케": 931,
      "둘": 932,
      "음악": 933,
      "출연": 934,
      "오늘": 935,
      "기능": 936,
      "인천": 937,
      "압": 938,
      "신청": 939,
      "드러": 940,
      "지속": 941,
      "##라인": 942,
      "먼": 943,
      "어야": 944,
      "LG": 945,
      "대해서": 946,
      "대부분": 947,
      "어떻": 948,
      "w": 949,
      "수익": 950,
      "직원": 951,
      "##데이": 952,
      "참가": 953,
      "집중": 954,
      "쉽": 955,
      "우려": 956,
      "##림픽": 957,
      "개최": 958,
      "콘": 959,
      "참석": 960,
      "TV": 961,
      "역할": 962,
      "인기": 963,
      "의견": 964,
      "선발": 965,
      "대책": 966,
      "협력": 967,
      "지도": 968,
      "적극": 969,
      "반대": 970,
      "b": 971,
      "업무": 972,
      "##ar": 973,
      "해당": 974,
      "##동안": 975,
      "냐": 976,
      "하락": 977,
      "차지": 978,
      "##롯데": 979,
      "##인트": 980,
      "매출": 981,
      "합니다": 982,
      "조성": 983,
      "조정": 984,
      "얘": 985,
      "조직": 986,
      "치료": 987,
      "더라": 988,
      "하루": 989,
      "같이": 990,
      "처리": 991,
      "기회": 992,
      "너무": 993,
      "전화": 994,
      "병원": 995,
      "이제": 996,
      "영국": 997,
      "주식": 998,
      "소속": 999,
      "&": 1000,
      "km": 1001,
      "죽": 1002,
      "롯데": 1003,
      "수출": 1004,
      "금리": 1005,
      "여기": 1006,
      "##이지": 1007,
      "인정": 1008,
      "아파트": 1009,
      "보고": 1010,
      "여자": 1011,
      "가구": 1012,
      "선택": 1013,
      "자료": 1014,
      "격": 1015,
      "목표": 1016,
      "로부터": 1017,
      "얘기": 1018,
      "확보": 1019,
      "마다": 1020,
      "##BS": 1021,
      "훈련": 1022,
      "2000": 1023,
      "사무": 1024,
      "사장": 1025,
      "SK": 1026,
      "!": 1027,
      "만나": 1028,
      "##al": 1029,
      "반면": 1030,
      "우선": 1031,
      "나가": 1032,
      "코스": 1033,
      "적용": 1034,
      "교통": 1035,
      "축구": 1036,
      "고려": 1037,
      "미래": 1038,
      "감사": 1039,
      "작업": 1040,
      "결국": 1041,
      "인지": 1042,
      "출신": 1043,
      "어요": 1044,
      "##운드": 1045,
      "##업체": 1046,
      "프랑": 1047,
      "판단": 1048,
      "진출": 1049,
      "##하여": 1050,
      "보였": 1051,
      "팬": 1052,
      "꾸": 1053,
      "소득": 1054,
      "##at": 1055,
      "단계": 1056,
      "놀": 1057,
      "혁": 1058,
      "오른": 1059,
      "p": 1060,
      "라면": 1061,
      "독일": 1062,
      "또는": 1063,
      "가치": 1064,
      "능력": 1065,
      "검사": 1066,
      "남자": 1067,
      "선보": 1068,
      "자연": 1069,
      "70": 1070,
      "품": 1071,
      "로서": 1072,
      "따른": 1073,
      "연기": 1074,
      "##너지": 1075,
      "조선": 1076,
      "아무": 1077,
      "##스타": 1078,
      "나온": 1079,
      "시행": 1080,
      "웃": 1081,
      "올림픽": 1082,
      "H": 1083,
      "이하": 1084,
      "그룹": 1085,
      "##한다": 1086,
      "승리": 1087,
      "퇴": 1088,
      "공식": 1089,
      "부문": 1090,
      "지지": 1091,
      "올라": 1092,
      "죠": 1093,
      "카드": 1094,
      "밖에": 1095,
      "도움": 1096,
      "님": 1097,
      "##위기": 1098,
      "어느": 1099,
      "통합": 1100,
      "##리당": 1101,
      "공급": 1102,
      "대로": 1103,
      "몇": 1104,
      "##라마": 1105,
      "께": 1106,
      "통신": 1107,
      "친구": 1108,
      "해도": 1109,
      "마지": 1110,
      "상당": 1111,
      "겨": 1112,
      "복지": 1113,
      "자체": 1114,
      "이렇": 1115,
      "영업": 1116,
      "거리": 1117,
      "##he": 1118,
      "##머니": 1119,
      "공사": 1120,
      "자동차": 1121,
      "##와대": 1122,
      "경험": 1123,
      "컨": 1124,
      "주변": 1125,
      "비해": 1126,
      "청와대": 1127,
      "##린다": 1128,
      "전시": 1129,
      "R": 1130,
      "외국인": 1131,
      "분기": 1132,
      "환자": 1133,
      "합의": 1134,
      "비용": 1135,
      "이전": 1136,
      "우수": 1137,
      "민주당": 1138,
      "위치": 1139,
      "마지막": 1140,
      "35": 1141,
      "좌": 1142,
      "차량": 1143,
      "여행": 1144,
      "W": 1145,
      "브랜드": 1146,
      "지수": 1147,
      "왜": 1148,
      "이동": 1149,
      "80": 1150,
      "보호": 1151,
      "인데": 1152,
      "국정": 1153,
      "결혼": 1154,
      "무대": 1155,
      "착": 1156,
      "워": 1157,
      "도입": 1158,
      "아시아": 1159,
      "프랑스": 1160,
      "분위기": 1161,
      "포인트": 1162,
      "본부": 1163,
      "이해": 1164,
      "U": 1165,
      "2012": 1166,
      "##자리": 1167,
      "##무원": 1168,
      "밤": 1169,
      "지구": 1170,
      "새누": 1171,
      "##포츠": 1172,
      "인상": 1173,
      "대출": 1174,
      "분양": 1175,
      "드라마": 1176,
      "중소": 1177,
      "의료": 1178,
      "공간": 1179,
      "류": 1180,
      "나타났": 1181,
      "종목": 1182,
      "논의": 1183,
      "위해서": 1184,
      "먼저": 1185,
      "##어난": 1186,
      "녹": 1187,
      "##전히": 1188,
      "##리스": 1189,
      "기본": 1190,
      "제기": 1191,
      "대신": 1192,
      "스마트": 1193,
      "글로": 1194,
      "캠": 1195,
      "머니": 1196,
      "단지": 1197,
      "총리": 1198,
      "슈": 1199,
      "숨": 1200,
      "종합": 1201,
      "2014": 1202,
      "달리": 1203,
      "이익": 1204,
      "덧": 1205,
      "대형": 1206,
      "현실": 1207,
      "무엇": 1208,
      "체험": 1209,
      "헌": 1210,
      "값": 1211,
      "과학": 1212,
      "암": 1213,
      "모델": 1214,
      "느냐": 1215,
      "출시": 1216,
      "여부": 1217,
      "의사": 1218,
      "붙": 1219,
      "방침": 1220,
      "높이": 1221,
      "즉": 1222,
      "청소": 1223,
      "헤": 1224,
      "비판": 1225,
      "##반기": 1226,
      "과거": 1227,
      "2013": 1228,
      "새누리당": 1229,
      "디자": 1230,
      "조치": 1231,
      "##민국": 1232,
      "장애": 1233,
      "개혁": 1234,
      "싸": 1235,
      "O": 1236,
      "월드": 1237,
      "##거리": 1238,
      "그동안": 1239,
      "소비자": 1240,
      "지나": 1241,
      "##그룹": 1242,
      "논란": 1243,
      "발견": 1244,
      "일정": 1245,
      "리그": 1246,
      "부족": 1247,
      "소개": 1248,
      "##ou": 1249,
      "각종": 1250,
      "자기": 1251,
      "투표": 1252,
      "감소": 1253,
      "음식": 1254,
      "어렵": 1255,
      "얼마": 1256,
      "어린이": 1257,
      "울산": 1258,
      "##re": 1259,
      "글로벌": 1260,
      "수입": 1261,
      "행위": 1262,
      "러시아": 1263,
      "잔": 1264,
      "대선": 1265,
      "가입": 1266,
      "시청": 1267,
      "최초": 1268,
      "최종": 1269,
      "연속": 1270,
      "촉": 1271,
      "제시": 1272,
      "##펀드": 1273,
      "맛": 1274,
      "쇼": 1275,
      "덧붙": 1276,
      "198": 1277,
      "##디어": 1278,
      "위험": 1279,
      "좀": 1280,
      "대한민국": 1281,
      "견": 1282,
      "꿈": 1283,
      "바람": 1284,
      "협상": 1285,
      "지급": 1286,
      "기획": 1287,
      "대응": 1288,
      "수요": 1289,
      "동시": 1290,
      "대전": 1291,
      "정신": 1292,
      "낙": 1293,
      "퍼": 1294,
      "경기도": 1295,
      "표현": 1296,
      "##레스": 1297,
      "만든": 1298,
      "알려졌": 1299,
      "검토": 1300,
      "예술": 1301,
      "실적": 1302,
      "기사": 1303,
      "온라인": 1304,
      "2011": 1305,
      "라도": 1306,
      "려는": 1307,
      "##공사": 1308,
      "등장": 1309,
      "찾아": 1310,
      "시험": 1311,
      "##다는": 1312,
      "##소리": 1313,
      "32": 1314,
      "징": 1315,
      "개정": 1316,
      "작가": 1317,
      "##나라": 1318,
      "반응": 1319,
      "2010": 1320,
      "##it": 1321,
      "차이": 1322,
      "신고": 1323,
      "삶": 1324,
      "##리그": 1325,
      "넣": 1326,
      "티": 1327,
      "소식": 1328,
      "홍보": 1329,
      "##버지": 1330,
      "흔": 1331,
      "히": 1332,
      "그런데": 1333,
      "2015": 1334,
      "졌": 1335,
      "담당": 1336,
      "##촬영": 1337,
      "흐": 1338,
      "나왔": 1339,
      "회복": 1340,
      "##위원": 1341,
      "촬영": 1342,
      "##스터": 1343,
      "색": 1344,
      "외교": 1345,
      ";": 1346,
      "제한": 1347,
      "△": 1348,
      "움": 1349,
      "스포츠": 1350,
      "33": 1351,
      "수상": 1352,
      "공공": 1353,
      "증권": 1354,
      "매우": 1355,
      "장기": 1356,
      "##연구": 1357,
      "내려": 1358,
      "f": 1359,
      "희망": 1360,
      "협의": 1361,
      "1000": 1362,
      "덧붙였": 1363,
      "인간": 1364,
      "전쟁": 1365,
      "그것": 1366,
      "부동": 1367,
      "누구": 1368,
      "수도": 1369,
      "전통": 1370,
      "g": 1371,
      "에너지": 1372,
      "강원": 1373,
      "재판": 1374,
      "본격": 1375,
      "제외": 1376,
      "핵심": 1377,
      "구속": 1378,
      "기념": 1379,
      "회담": 1380,
      "인수": 1381,
      "인가": 1382,
      "비교": 1383,
      "설립": 1384,
      "올랐": 1385,
      "아야": 1386,
      "가까": 1387,
      "전달": 1388,
      "주가": 1389,
      "나서": 1390,
      "##디오": 1391,
      "안타": 1392,
      "제대로": 1393,
      "45": 1394,
      "광고": 1395,
      "컴": 1396,
      "공무원": 1397,
      "당국": 1398,
      "연결": 1399,
      "론": 1400,
      "졸": 1401,
      "방향": 1402,
      "사망": 1403,
      "주인": 1404,
      "시절": 1405,
      "빌": 1406,
      "##le": 1407,
      "회원": 1408,
      "빈": 1409,
      "숙": 1410,
      "##이션": 1411,
      "영상": 1412,
      "주목": 1413,
      "깊": 1414,
      "지정": 1415,
      "요청": 1416,
      "서로": 1417,
      "납": 1418,
      "그래서": 1419,
      "박근": 1420,
      "의혹": 1421,
      "건축": 1422,
      "보유": 1423,
      "자산": 1424,
      "5000": 1425,
      "전자": 1426,
      "##프트": 1427,
      "열리": 1428,
      "고용": 1429,
      "등록": 1430,
      "유명": 1431,
      "겪": 1432,
      "전환": 1433,
      "아들": 1434,
      "JT": 1435,
      "바이": 1436,
      "인도": 1437,
      "시켜": 1438,
      "반영": 1439,
      "가정": 1440,
      "이르": 1441,
      "젊": 1442,
      "사례": 1443,
      "j": 1444,
      "공장": 1445,
      "활성": 1446,
      "교사": 1447,
      "JTBC": 1448,
      "뉴욕": 1449,
      "깨": 1450,
      "찬": 1451,
      "을까": 1452,
      "부동산": 1453,
      "박근혜": 1454,
      "##증권": 1455,
      "##페이지": 1456,
      "지하": 1457,
      "움직": 1458,
      "시기": 1459,
      "성과": 1460,
      "36": 1461,
      "보내": 1462,
      "인해": 1463,
      "모르": 1464,
      "대화": 1465,
      "kr": 1466,
      "심사": 1467,
      "a": 1468,
      "서울시": 1469,
      "공정": 1470,
      "이러": 1471,
      "거의": 1472,
      "낸": 1473,
      "인터뷰": 1474,
      "재정": 1475,
      "불법": 1476,
      "득": 1477,
      "거쳐": 1478,
      "수원": 1479,
      "이루": 1480,
      "냈": 1481,
      "##스로": 1482,
      "질문": 1483,
      "500": 1484,
      "90": 1485,
      "##없이": 1486,
      "디자인": 1487,
      "구축": 1488,
      "투수": 1489,
      "프리": 1490,
      "스럽": 1491,
      "청소년": 1492,
      "삼성전자": 1493,
      "타이": 1494,
      "마을": 1495,
      "남성": 1496,
      "예방": 1497,
      "민간": 1498,
      "소리": 1499,
      "믿": 1500,
      "수술": 1501,
      "빨": 1502,
      "홈페이지": 1503,
      "부상": 1504,
      "규정": 1505,
      "노래": 1506,
      "마이": 1507,
      "사태": 1508,
      "슬": 1509,
      "주제": 1510,
      "년대": 1511,
      "전기": 1512,
      "충분": 1513,
      "세대": 1514,
      "유치": 1515,
      "##러스": 1516,
      "제조": 1517,
      "##페인": 1518,
      "2008": 1519,
      "확정": 1520,
      "도로": 1521,
      "d": 1522,
      "더라도": 1523,
      "못한": 1524,
      "건물": 1525,
      "##스크": 1526,
      "출전": 1527,
      "벗": 1528,
      "체제": 1529,
      "발언": 1530,
      "얼굴": 1531,
      "성적": 1532,
      "34": 1533,
      "솔": 1534,
      "세상": 1535,
      "흥": 1536,
      "혁신": 1537,
      "관한": 1538,
      "잇": 1539,
      "불과": 1540,
      "기반": 1541,
      "이끌": 1542,
      "망": 1543,
      "규제": 1544,
      "꼽": 1545,
      "내부": 1546,
      "##es": 1547,
      "앞두": 1548,
      "선물": 1549,
      "사항": 1550,
      "##이터": 1551,
      "2009": 1552,
      "조건": 1553,
      "##른다": 1554,
      "행복": 1555,
      "끼": 1556,
      "##위원회": 1557,
      "벌어": 1558,
      "비율": 1559,
      "혜": 1560,
      "제출": 1561,
      "변호": 1562,
      "조금": 1563,
      "짜": 1564,
      "의회": 1565,
      "자세": 1566,
      "제안": 1567,
      "버스": 1568,
      "보장": 1569,
      "가수": 1570,
      "창업": 1571,
      "곡": 1572,
      "스스로": 1573,
      "스러": 1574,
      "##협회": 1575,
      "내놓": 1576,
      "평화": 1577,
      "땅": 1578,
      "으로부터": 1579,
      "아버지": 1580,
      "으니": 1581,
      "다만": 1582,
      "전남": 1583,
      "부모": 1584,
      "##ic": 1585,
      "영어": 1586,
      "딸": 1587,
      "자원": 1588,
      "으로서": 1589,
      "사전": 1590,
      "##의원": 1591,
      "곧": 1592,
      "듣": 1593,
      "존재": 1594,
      "신문": 1595,
      "덕": 1596,
      "의해": 1597,
      "는가": 1598,
      "피부": 1599,
      "원인": 1600,
      "섬": 1601,
      "전북": 1602,
      "메이": 1603,
      "야구": 1604,
      "플레이": 1605,
      "홈런": 1606,
      "익": 1607,
      "목소리": 1608,
      "인구": 1609,
      "빼": 1610,
      "힘들": 1611,
      "옮": 1612,
      "체계": 1613,
      "찍": 1614,
      "택": 1615,
      "빛": 1616,
      "정권": 1617,
      "경남": 1618,
      "노조": 1619,
      "주도": 1620,
      "쿠": 1621,
      "넘어": 1622,
      "비슷": 1623,
      "염": 1624,
      "갑": 1625,
      "남북": 1626,
      "인식": 1627,
      "펀드": 1628,
      "읽": 1629,
      "정확": 1630,
      "55": 1631,
      "지켜": 1632,
      "중단": 1633,
      "오히": 1634,
      "강남": 1635,
      "최소": 1636,
      "냉": 1637,
      "연합": 1638,
      "취업": 1639,
      "소재": 1640,
      "오히려": 1641,
      "전해": 1642,
      "##리즈": 1643,
      "학년": 1644,
      "토론": 1645,
      "대변": 1646,
      "가진": 1647,
      "그대로": 1648,
      "봉사": 1649,
      "자치": 1650,
      "##연합": 1651,
      "정당": 1652,
      "행동": 1653,
      "오르": 1654,
      "어려운": 1655,
      "유통": 1656,
      "벤": 1657,
      "구매": 1658,
      "맥": 1659,
      "자본": 1660,
      "##가지": 1661,
      "##무리": 1662,
      "고민": 1663,
      "절차": 1664,
      "38": 1665,
      "으로써": 1666,
      "목적": 1667,
      "##ing": 1668,
      "인근": 1669,
      "형태": 1670,
      "따라서": 1671,
      "엘": 1672,
      "푸": 1673,
      "머리": 1674,
      "##벤트": 1675,
      "차원": 1676,
      "근무": 1677,
      "나섰": 1678,
      "도전": 1679,
      "투자자": 1680,
      "경북": 1681,
      "강력": 1682,
      "정말": 1683,
      "뽑": 1684,
      "보수": 1685,
      "월드컵": 1686,
      "현상": 1687,
      "향후": 1688,
      "칼": 1689,
      "레이": 1690,
      "일자리": 1691,
      "통화": 1692,
      "*": 1693,
      "선언": 1694,
      "다르": 1695,
      "통한": 1696,
      "려고": 1697,
      "여름": 1698,
      "전력": 1699,
      "식품": 1700,
      "◆": 1701,
      "라이": 1702,
      "통과": 1703,
      "증시": 1704,
      "근로": 1705,
      "∼": 1706,
      "##므로": 1707,
      "전반": 1708,
      "구체": 1709,
      "통일": 1710,
      "묻": 1711,
      "범죄": 1712,
      "조합": 1713,
      "한나라": 1714,
      "신용": 1715,
      "들어가": 1716,
      "이벤트": 1717,
      "이란": 1718,
      "나이": 1719,
      "뮤": 1720,
      "셈": 1721,
      "채권": 1722,
      "전년": 1723,
      "올리": 1724,
      "김정": 1725,
      "스타일": 1726,
      "정규": 1727,
      "300": 1728,
      "둔": 1729,
      "인물": 1730,
      "연금": 1731,
      "##ent": 1732,
      "스트": 1733,
      "가량": 1734,
      "부정": 1735,
      "신규": 1736,
      "생명": 1737,
      "홀": 1738,
      "액": 1739,
      "마무리": 1740,
      "the": 1741,
      "ww": 1742,
      "졸업": 1743,
      "www": 1744,
      "술": 1745,
      "국방": 1746,
      "브라": 1747,
      "잃": 1748,
      "o": 1749,
      "축제": 1750,
      "이미지": 1751,
      "할인": 1752,
      "인력": 1753,
      "사상": 1754,
      "업계": 1755,
      "원내": 1756,
      "점검": 1757,
      "V": 1758,
      "##투데이": 1759,
      "37": 1760,
      "시리즈": 1761,
      "시켰": 1762,
      "봐": 1763,
      "무료": 1764,
      "공부": 1765,
      "하이": 1766,
      "##니스": 1767,
      "등급": 1768,
      "기초": 1769,
      "골프": 1770,
      "십": 1771,
      "탐": 1772,
      "임금": 1773,
      "투입": 1774,
      "혈": 1775,
      "##아들": 1776,
      "이탈": 1777,
      "한나라당": 1778,
      "갔": 1779,
      "야당": 1780,
      "요즘": 1781,
      "머니투데이": 1782,
      "재산": 1783,
      "위반": 1784,
      "수석": 1785,
      "잘못": 1786,
      "197": 1787,
      "승부": 1788,
      "밝혀": 1789,
      "끊": 1790,
      "l": 1791,
      "모집": 1792,
      "아래": 1793,
      "청년": 1794,
      "당선": 1795,
      "상담": 1796,
      "꽃": 1797,
      "계기": 1798,
      "겨울": 1799,
      "ᆞ": 1800,
      "##우스": 1801,
      "싱": 1802,
      "2007": 1803,
      "대사": 1804,
      "여론": 1805,
      "실패": 1806,
      "##ig": 1807,
      "옥": 1808,
      "궁": 1809,
      "여전히": 1810,
      "스마트폰": 1811,
      "금지": 1812,
      "대중": 1813,
      "계열": 1814,
      "법원": 1815,
      "곤": 1816,
      "나선": 1817,
      "뇌": 1818,
      "항공": 1819,
      "시각": 1820,
      "늦": 1821,
      "불안": 1822,
      "왼": 1823,
      "의장": 1824,
      "##바일": 1825,
      "##요일": 1826,
      "##등학교": 1827,
      "세월": 1828,
      "속도": 1829,
      "전혀": 1830,
      "Co": 1831,
      "주로": 1832,
      "파악": 1833,
      "그림": 1834,
      "의지": 1835,
      "소송": 1836,
      "##스코": 1837,
      "##민주": 1838,
      "金": 1839,
      "호텔": 1840,
      "데뷔": 1841,
      "신경": 1842,
      "2016": 1843,
      "어디": 1844,
      "총장": 1845,
      "##걱정": 1846,
      "경쟁력": 1847,
      "2006": 1848,
      "약속": 1849,
      "체결": 1850,
      "짓": 1851,
      "마치": 1852,
      "IT": 1853,
      "결승": 1854,
      "걱정": 1855,
      "임대": 1856,
      "득점": 1857,
      "42": 1858,
      "자격": 1859,
      "##학과": 1860,
      "수비": 1861,
      "##문화": 1862,
      "기억": 1863,
      "##수록": 1864,
      "멀": 1865,
      "꼭": 1866,
      "e": 1867,
      "쉬": 1868,
      "+": 1869,
      "설계": 1870,
      "##이드": 1871,
      "시도": 1872,
      "변경": 1873,
      "세력": 1874,
      "추천": 1875,
      "분명": 1876,
      "학습": 1877,
      "혹": 1878,
      "##학생": 1879,
      "배치": 1880,
      "확실": 1881,
      "휴대": 1882,
      "비중": 1883,
      "48": 1884,
      "거부": 1885,
      "국립": 1886,
      "앨": 1887,
      "##주시": 1888,
      "핫": 1889,
      "부인": 1890,
      "의식": 1891,
      "65": 1892,
      "그녀": 1893,
      "보건": 1894,
      "##멤버": 1895,
      "한화": 1896,
      "회견": 1897,
      "39": 1898,
      "대변인": 1899,
      "모바일": 1900,
      "##am": 1901,
      "구단": 1902,
      "충북": 1903,
      "교체": 1904,
      "##병원": 1905,
      "갈등": 1906,
      "수행": 1907,
      "출발": 1908,
      "##회장": 1909,
      "이러한": 1910,
      "연장": 1911,
      "운용": 1912,
      "독립": 1913,
      "컴퓨": 1914,
      "지분": 1915,
      "시킨": 1916,
      "베이": 1917,
      "세종": 1918,
      "프로젝": 1919,
      "y": 1920,
      "해왔": 1921,
      "아침": 1922,
      "변호사": 1923,
      "전용": 1924,
      "바다": 1925,
      "보고서": 1926,
      "##니아": 1927,
      "보통": 1928,
      "혜택": 1929,
      "군사": 1930,
      "다이": 1931,
      "##준다": 1932,
      "집행": 1933,
      "심리": 1934,
      "이것": 1935,
      "실제로": 1936,
      "화제": 1937,
      "쌓": 1938,
      "지사": 1939,
      "멤버": 1940,
      "활약": 1941,
      "만드": 1942,
      "순간": 1943,
      "넓": 1944,
      "정리": 1945,
      "부부": 1946,
      "##ion": 1947,
      "MBC": 1948,
      "겸": 1949,
      "##리카": 1950,
      "대체": 1951,
      "일으": 1952,
      "세기": 1953,
      "43": 1954,
      "노인": 1955,
      "구입": 1956,
      "려면": 1957,
      "언급": 1958,
      "김영": 1959,
      "75": 1960,
      "3000": 1961,
      "장비": 1962,
      "느낌": 1963,
      "봤": 1964,
      "공모": 1965,
      "KT": 1966,
      "욕": 1967,
      "콜": 1968,
      "흑": 1969,
      "박사": 1970,
      "가져": 1971,
      "두산": 1972,
      "달성": 1973,
      "이곳": 1974,
      "재미": 1975,
      "화장": 1976,
      "달라": 1977,
      "펼쳐": 1978,
      "허용": 1979,
      "##서관": 1980,
      "후반": 1981,
      "신뢰": 1982,
      "바탕": 1983,
      "쯤": 1984,
      "만족": 1985,
      "쏟": 1986,
      "균": 1987,
      "44": 1988,
      "##as": 1989,
      "##케팅": 1990,
      "바라": 1991,
      "41": 1992,
      "받아들": 1993,
      "컴퓨터": 1994,
      "인권": 1995,
      "법인": 1996,
      "46": 1997,
      "확산": 1998,
      "특징": 1999,
      "기다": 2000,
      "불리": 2001,
      "언제": 2002,
      "특정": 2003,
      "금액": 2004,
      "이승": 2005,
      "단순": 2006,
      "연출": 2007,
      "무기": 2008,
      "##oo": 2009,
      "##화점": 2010,
      "순위": 2011,
      "연구원": 2012,
      "올렸": 2013,
      "맨": 2014,
      "보여주": 2015,
      "52": 2016,
      "심각": 2017,
      "타자": 2018,
      "cm": 2019,
      "원칙": 2020,
      "매각": 2021,
      "완화": 2022,
      "남편": 2023,
      "아름": 2024,
      "뜨": 2025,
      "프로젝트": 2026,
      "발행": 2027,
      "사이트": 2028,
      "해양": 2029,
      "자녀": 2030,
      "과제": 2031,
      "매장": 2032,
      "매년": 2033,
      "더불": 2034,
      "장면": 2035,
      "##un": 2036,
      "KBS": 2037,
      "가스": 2038,
      "여야": 2039,
      "49": 2040,
      "향상": 2041,
      "자주": 2042,
      "서울대": 2043,
      "실험": 2044,
      "##ed": 2045,
      "47": 2046,
      "접수": 2047,
      "원하": 2048,
      "요금": 2049,
      "아프": 2050,
      "차별": 2051,
      "다며": 2052,
      "##반도": 2053,
      "##텐츠": 2054,
      "뒷": 2055,
      "51": 2056,
      "둘러": 2057,
      "강한": 2058,
      "흘": 2059,
      "마케팅": 2060,
      "채용": 2061,
      "교과": 2062,
      "부진": 2063,
      "공원": 2064,
      "동물": 2065,
      "얼마나": 2066,
      "캐릭": 2067,
      "져": 2068,
      "빚": 2069,
      "##니까": 2070,
      "안보": 2071,
      "소통": 2072,
      "천만": 2073,
      "직장": 2074,
      "으면서": 2075,
      "패션": 2076,
      "오래": 2077,
      "캐릭터": 2078,
      "##럼프": 2079,
      "롭": 2080,
      "인한": 2081,
      "탑": 2082,
      "》": 2083,
      "어머니": 2084,
      "《": 2085,
      "후보자": 2086,
      "☞": 2087,
      "빅": 2088,
      "케이": 2089,
      "마감": 2090,
      "196": 2091,
      "기소": 2092,
      "고자": 2093,
      "휘": 2094,
      "일대": 2095,
      "##산업": 2096,
      "쓴": 2097,
      "미술": 2098,
      "벌이": 2099,
      "감정": 2100,
      "##el": 2101,
      "##기자": 2102,
      "총선": 2103,
      "지식": 2104,
      "자는": 2105,
      "_": 2106,
      "개국": 2107,
      "85": 2108,
      "아서": 2109,
      "##메달": 2110,
      "의무": 2111,
      "유리": 2112,
      "애플": 2113,
      "엄마": 2114,
      "주인공": 2115,
      "##머지": 2116,
      "라인": 2117,
      "효율": 2118,
      "일단": 2119,
      "나온다": 2120,
      "그만": 2121,
      "##어났": 2122,
      "##im": 2123,
      "마리": 2124,
      "눈길": 2125,
      "나머지": 2126,
      "무역": 2127,
      "대우": 2128,
      "예비": 2129,
      "kg": 2130,
      "불구": 2131,
      "첨": 2132,
      "앵": 2133,
      "맺": 2134,
      "2017": 2135,
      "##드시": 2136,
      "아울": 2137,
      "나타나": 2138,
      "장애인": 2139,
      "##산물": 2140,
      "2005": 2141,
      "유일": 2142,
      "다니": 2143,
      "특수": 2144,
      "##20": 2145,
      "폴": 2146,
      "걸쳐": 2147,
      "법률": 2148,
      "나와": 2149,
      "해소": 2150,
      "소설": 2151,
      "본다": 2152,
      "##텔레": 2153,
      "주주": 2154,
      "사라": 2155,
      "한다면": 2156,
      "어려움": 2157,
      "형성": 2158,
      "장소": 2159,
      "농업": 2160,
      "반드시": 2161,
      "##교육": 2162,
      "##란드": 2163,
      "불러": 2164,
      "시위": 2165,
      "폭력": 2166,
      "밑": 2167,
      "마찬": 2168,
      "##도로": 2169,
      "##워크": 2170,
      "교육청": 2171,
      "상장": 2172,
      "배경": 2173,
      "세요": 2174,
      "입주": 2175,
      "평소": 2176,
      "마찬가지": 2177,
      "##먼트": 2178,
      "떠나": 2179,
      "원장": 2180,
      "소유": 2181,
      "Q": 2182,
      "기여": 2183,
      "충남": 2184,
      "내리": 2185,
      "꾸준": 2186,
      "자랑": 2187,
      "촉구": 2188,
      "사과": 2189,
      "맞춰": 2190,
      "53": 2191,
      "메시": 2192,
      "이어지": 2193,
      "2002": 2194,
      "##챔피": 2195,
      "세트": 2196,
      "추정": 2197,
      "지키": 2198,
      "##업계": 2199,
      "54": 2200,
      "부대": 2201,
      "이재": 2202,
      "트럼프": 2203,
      "##ot": 2204,
      "##아가": 2205,
      "PC": 2206,
      "전형": 2207,
      "협약": 2208,
      "괴": 2209,
      "옛": 2210,
      "이명": 2211,
      "옷": 2212,
      "흡": 2213,
      "##란다": 2214,
      "포기": 2215,
      "줄이": 2216,
      "아내": 2217,
      "그러면": 2218,
      "체육": 2219,
      "업종": 2220,
      "웨": 2221,
      "##과학": 2222,
      "관객": 2223,
      "이른": 2224,
      "봄": 2225,
      "진단": 2226,
      "외부": 2227,
      "##일보": 2228,
      "나갈": 2229,
      "불편": 2230,
      "연계": 2231,
      "선생": 2232,
      "최저": 2233,
      "느끼": 2234,
      "구역": 2235,
      "최선": 2236,
      "다소": 2237,
      "64": 2238,
      "이탈리아": 2239,
      "뿌": 2240,
      "99": 2241,
      "모양": 2242,
      "집단": 2243,
      "##et": 2244,
      "작용": 2245,
      "철도": 2246,
      "비난": 2247,
      "해석": 2248,
      "틀": 2249,
      "알리": 2250,
      "주말": 2251,
      "접근": 2252,
      "본인": 2253,
      "육성": 2254,
      "준다": 2255,
      "56": 2256,
      "권력": 2257,
      "챙": 2258,
      "공유": 2259,
      "주의": 2260,
      "웃음": 2261,
      "##메라": 2262,
      "떨어지": 2263,
      "##ul": 2264,
      "아울러": 2265,
      "요인": 2266,
      "소방": 2267,
      "초기": 2268,
      "정비": 2269,
      "전주": 2270,
      "가슴": 2271,
      "요리": 2272,
      "연간": 2273,
      "판결": 2274,
      "명예": 2275,
      "문학": 2276,
      "훨": 2277,
      "장치": 2278,
      "척": 2279,
      "헌법": 2280,
      "##il": 2281,
      "개막": 2282,
      "출마": 2283,
      "##ac": 2284,
      "스러운": 2285,
      "수업": 2286,
      "창출": 2287,
      "운전": 2288,
      "런": 2289,
      "수수": 2290,
      "물질": 2291,
      "그린": 2292,
      "2004": 2293,
      "밝히": 2294,
      "바뀌": 2295,
      "훨씬": 2296,
      "옆": 2297,
      "기구": 2298,
      "02": 2299,
      "시점": 2300,
      "특성": 2301,
      "유엔": 2302,
      "획": 2303,
      "SBS": 2304,
      "국무": 2305,
      "복귀": 2306,
      "매력": 2307,
      "작성": 2308,
      "57": 2309,
      "##ro": 2310,
      "선고": 2311,
      "청구": 2312,
      "연예": 2313,
      "꼬": 2314,
      "경주": 2315,
      "위협": 2316,
      "전투": 2317,
      "고속": 2318,
      "묘": 2319,
      "컬": 2320,
      "절반": 2321,
      "쌍": 2322,
      "벽": 2323,
      "앨범": 2324,
      "어도": 2325,
      "##지털": 2326,
      "##건설": 2327,
      "95": 2328,
      "법안": 2329,
      "긍": 2330,
      "챔피": 2331,
      "기부": 2332,
      "##ht": 2333,
      "좋아": 2334,
      "철저": 2335,
      "반발": 2336,
      "##플레이": 2337,
      "59": 2338,
      "##기업": 2339,
      "응답": 2340,
      "초반": 2341,
      "아동": 2342,
      "써": 2343,
      "직후": 2344,
      "앵커": 2345,
      "단독": 2346,
      "##사일": 2347,
      "테러": 2348,
      "주문": 2349,
      "피해자": 2350,
      "동의": 2351,
      "면적": 2352,
      "민족": 2353,
      "측면": 2354,
      "한반도": 2355,
      "앉": 2356,
      "빠져": 2357,
      "라운드": 2358,
      "선진": 2359,
      "관람": 2360,
      "문재": 2361,
      "58": 2362,
      "매수": 2363,
      "점수": 2364,
      "지시": 2365,
      "오픈": 2366,
      "완성": 2367,
      "처분": 2368,
      "세금": 2369,
      "관광객": 2370,
      "부장": 2371,
      "##대학교": 2372,
      "탓": 2373,
      "교류": 2374,
      "쇼핑": 2375,
      "조차": 2376,
      "李": 2377,
      "근거": 2378,
      "질환": 2379,
      "흐름": 2380,
      "##토리": 2381,
      "학부": 2382,
      "늘어나": 2383,
      "##st": 2384,
      "국토": 2385,
      "##비아": 2386,
      "매일": 2387,
      "돼야": 2388,
      "콘텐츠": 2389,
      "유로": 2390,
      "감안": 2391,
      "상반기": 2392,
      "노동자": 2393,
      "##나무": 2394,
      "돕": 2395,
      "비행": 2396,
      "세월호": 2397,
      "텔레": 2398,
      "63": 2399,
      "인증": 2400,
      "갤": 2401,
      "주년": 2402,
      "##se": 2403,
      "끝나": 2404,
      "구간": 2405,
      "왼쪽": 2406,
      "영역": 2407,
      "아름다": 2408,
      "실력": 2409,
      "빠르": 2410,
      "긍정": 2411,
      "국회의원": 2412,
      "##연구원": 2413,
      "편의": 2414,
      "보상": 2415,
      "화학": 2416,
      "충격": 2417,
      "인하": 2418,
      "적절": 2419,
      "연대": 2420,
      "짧": 2421,
      "수용": 2422,
      "브라질": 2423,
      "방지": 2424,
      "사정": 2425,
      "##거운": 2426,
      "클럽": 2427,
      "공천": 2428,
      "번호": 2429,
      "들여": 2430,
      "시킬": 2431,
      "동원": 2432,
      "진정": 2433,
      "스페인": 2434,
      "빠른": 2435,
      "보조": 2436,
      "슈퍼": 2437,
      "샤": 2438,
      "상위": 2439,
      "바꾸": 2440,
      "취임": 2441,
      "별도": 2442,
      "조기": 2443,
      "불가": 2444,
      "##and": 2445,
      "디지털": 2446,
      "넥": 2447,
      "비상": 2448,
      "개편": 2449,
      "Y": 2450,
      "만난": 2451,
      "정기": 2452,
      "지상": 2453,
      "된다는": 2454,
      "폐지": 2455,
      "호주": 2456,
      "헬": 2457,
      "한국인": 2458,
      "실점": 2459,
      "부르": 2460,
      "주차": 2461,
      "공약": 2462,
      "중간": 2463,
      "아주": 2464,
      "미치": 2465,
      "유가": 2466,
      "털": 2467,
      "환율": 2468,
      "고급": 2469,
      "##물관": 2470,
      "정의": 2471,
      "진보": 2472,
      "모임": 2473,
      "하반기": 2474,
      "직업": 2475,
      "거듭": 2476,
      "쓸": 2477,
      "##총리": 2478,
      "캠프": 2479,
      "##피스": 2480,
      "바란다": 2481,
      "인생": 2482,
      "생기": 2483,
      "##티즌": 2484,
      "동기": 2485,
      "김성": 2486,
      "메시지": 2487,
      "##ight": 2488,
      "누리": 2489,
      "해온": 2490,
      "뛰어": 2491,
      "위안": 2492,
      "##트워크": 2493,
      "선두": 2494,
      "안내": 2495,
      "##마을": 2496,
      "##중앙": 2497,
      "근로자": 2498,
      "##다고": 2499,
      "춘": 2500,
      "부지": 2501,
      "홍콩": 2502,
      "연주": 2503,
      "66": 2504,
      "195": 2505,
      "전면": 2506,
      "죄": 2507,
      "##뉴스": 2508,
      "크리스": 2509,
      "그리스": 2510,
      "KB": 2511,
      "청주": 2512,
      "in": 2513,
      "2003": 2514,
      "##시장": 2515,
      "긴장": 2516,
      "충분히": 2517,
      "대법": 2518,
      "##의회": 2519,
      "강하": 2520,
      "이명박": 2521,
      "기아": 2522,
      "외환": 2523,
      "이닝": 2524,
      "융": 2525,
      "단속": 2526,
      "초청": 2527,
      "##항공": 2528,
      "72": 2529,
      "지배": 2530,
      "카메라": 2531,
      "당초": 2532,
      "으려": 2533,
      "김태": 2534,
      "모아": 2535,
      "표시": 2536,
      "센": 2537,
      "니까": 2538,
      "##거래": 2539,
      "발굴": 2540,
      "지휘": 2541,
      "부채": 2542,
      "##TA": 2543,
      "균형": 2544,
      "웹": 2545,
      "줬": 2546,
      "연습": 2547,
      "고위": 2548,
      "임명": 2549,
      "허가": 2550,
      "성격": 2551,
      "국정원": 2552,
      "동아": 2553,
      "당연": 2554,
      "##자기": 2555,
      "##트리": 2556,
      "박지": 2557,
      "잇따": 2558,
      "끌어": 2559,
      "메이저": 2560,
      "데이터": 2561,
      "므로": 2562,
      "고교": 2563,
      "아마": 2564,
      "공항": 2565,
      "로운": 2566,
      "챔피언": 2567,
      "of": 2568,
      "나누": 2569,
      "이내": 2570,
      "##세대": 2571,
      "밝힌": 2572,
      "처벌": 2573,
      "62": 2574,
      "##tp": 2575,
      "연말": 2576,
      "뭐": 2577,
      "프리미": 2578,
      "흔들": 2579,
      "진입": 2580,
      "굳": 2581,
      "저녁": 2582,
      "확장": 2583,
      "네티즌": 2584,
      "후원": 2585,
      "짜리": 2586,
      "실질": 2587,
      "요소": 2588,
      "기금": 2589,
      "걷": 2590,
      "지도자": 2591,
      "여당": 2592,
      "61": 2593,
      "노선": 2594,
      "오랜": 2595,
      "유도": 2596,
      "강원도": 2597,
      "출범": 2598,
      "밥": 2599,
      "악화": 2600,
      "미군": 2601,
      "더니": 2602,
      "살펴": 2603,
      "태도": 2604,
      "98": 2605,
      "사업자": 2606,
      "거주": 2607,
      "도착": 2608,
      "폭발": 2609,
      "총재": 2610,
      "84": 2611,
      "##서트": 2612,
      "절대": 2613,
      "개입": 2614,
      "##id": 2615,
      "당신": 2616,
      "동료": 2617,
      "재단": 2618,
      "임시": 2619,
      "꺼": 2620,
      "가르": 2621,
      "움직임": 2622,
      "열린다": 2623,
      "지점": 2624,
      "굴": 2625,
      "백만": 2626,
      "승인": 2627,
      "증거": 2628,
      "코스피": 2629,
      "희생": 2630,
      "입학": 2631,
      "##바이": 2632,
      "##공원": 2633,
      "복합": 2634,
      "4000": 2635,
      "주거": 2636,
      "##웨어": 2637,
      "73": 2638,
      "집계": 2639,
      "개방": 2640,
      "빨리": 2641,
      "세포": 2642,
      "취재": 2643,
      "나눠": 2644,
      "경선": 2645,
      "즐기": 2646,
      "힐": 2647,
      "작년": 2648,
      "페이스": 2649,
      "뮤지": 2650,
      "##담회": 2651,
      "##직원": 2652,
      "##청장": 2653,
      "섭": 2654,
      "타격": 2655,
      "화면": 2656,
      "눈물": 2657,
      "블랙": 2658,
      "68": 2659,
      "##체육": 2660,
      "##실장": 2661,
      "당부": 2662,
      "미사일": 2663,
      "물량": 2664,
      "##심히": 2665,
      "실천": 2666,
      "400": 2667,
      "양국": 2668,
      "천안": 2669,
      "##리트": 2670,
      "객": 2671,
      "벨": 2672,
      "##으며": 2673,
      "##리오": 2674,
      "긴급": 2675,
      "##직자": 2676,
      "혼자": 2677,
      "194": 2678,
      "초등": 2679,
      "##티브": 2680,
      "부품": 2681,
      "돌파": 2682,
      "현금": 2683,
      "대만": 2684,
      "##프라": 2685,
      "나무": 2686,
      "운행": 2687,
      "기기": 2688,
      "포항": 2689,
      "주일": 2690,
      "품질": 2691,
      "부여": 2692,
      "기계": 2693,
      "성남": 2694,
      "##웨이": 2695,
      "김종": 2696,
      "과장": 2697,
      "물가": 2698,
      "손실": 2699,
      "코치": 2700,
      "작전": 2701,
      "양성": 2702,
      "일상": 2703,
      "벗어나": 2704,
      "##무부": 2705,
      "새롭": 2706,
      "실현": 2707,
      "내렸": 2708,
      "매매": 2709,
      "셨": 2710,
      "개념": 2711,
      "##간다": 2712,
      "주관": 2713,
      "67": 2714,
      "가까운": 2715,
      "mm": 2716,
      "기울": 2717,
      "투명": 2718,
      "극복": 2719,
      "##하이": 2720,
      "취지": 2721,
      "마저": 2722,
      "가을": 2723,
      "배출": 2724,
      "대결": 2725,
      "역대": 2726,
      "77": 2727,
      "한데": 2728,
      "즐길": 2729,
      "그러면서": 2730,
      "미리": 2731,
      "합격": 2732,
      "범위": 2733,
      "for": 2734,
      "비밀": 2735,
      "〈": 2736,
      "수치": 2737,
      "형사": 2738,
      "언어": 2739,
      "수정": 2740,
      "다리": 2741,
      "동부": 2742,
      "덜": 2743,
      "사퇴": 2744,
      "〉": 2745,
      "띠": 2746,
      "기온": 2747,
      "150": 2748,
      "##케이": 2749,
      "이슈": 2750,
      "상징": 2751,
      "보안": 2752,
      "연구소": 2753,
      "감염": 2754,
      "부처": 2755,
      "리더": 2756,
      "제주도": 2757,
      "채널": 2758,
      "공화": 2759,
      "n": 2760,
      "이정": 2761,
      "집회": 2762,
      "시내": 2763,
      "상승세": 2764,
      "커피": 2765,
      "을지": 2766,
      "하늘": 2767,
      "의심": 2768,
      "부회장": 2769,
      "설정": 2770,
      "발사": 2771,
      "아르": 2772,
      "소프트": 2773,
      "독자": 2774,
      "내세": 2775,
      "컵": 2776,
      "ht": 2777,
      "맹": 2778,
      "소화": 2779,
      "미디어": 2780,
      "트위": 2781,
      "토지": 2782,
      "코스닥": 2783,
      "혁명": 2784,
      "쌀": 2785,
      "수학": 2786,
      "경고": 2787,
      "공시": 2788,
      "##ub": 2789,
      "이틀": 2790,
      "베트": 2791,
      "##ol": 2792,
      "인재": 2793,
      "신설": 2794,
      "당했": 2795,
      "단위": 2796,
      "대학생": 2797,
      "기타": 2798,
      "공감": 2799,
      "손해": 2800,
      "식사": 2801,
      "꾸준히": 2802,
      "축소": 2803,
      "동반": 2804,
      "보증": 2805,
      "알아": 2806,
      "크기": 2807,
      "생태": 2808,
      "76": 2809,
      "74": 2810,
      "개봉": 2811,
      "편성": 2812,
      "##고기": 2813,
      "증상": 2814,
      "응원": 2815,
      "완전히": 2816,
      "겁": 2817,
      "노무": 2818,
      "머물": 2819,
      "갖춘": 2820,
      "일제": 2821,
      "태양": 2822,
      "반도": 2823,
      "경기장": 2824,
      "##사자": 2825,
      "에스": 2826,
      "갖추": 2827,
      "##ay": 2828,
      "제재": 2829,
      "##NS": 2830,
      "오바": 2831,
      "단기": 2832,
      "69": 2833,
      "수단": 2834,
      "소장": 2835,
      "제일": 2836,
      "역량": 2837,
      "간담회": 2838,
      "조작": 2839,
      "지표": 2840,
      "추세": 2841,
      "적자": 2842,
      "고양": 2843,
      "##재단": 2844,
      "학부모": 2845,
      "##공업": 2846,
      "열심히": 2847,
      "치열": 2848,
      "##기술": 2849,
      "드러났": 2850,
      "형식": 2851,
      "강세": 2852,
      "일어나": 2853,
      "##ang": 2854,
      "버리": 2855,
      "계열사": 2856,
      "문의": 2857,
      "의한": 2858,
      "개정안": 2859,
      "71": 2860,
      "더불어": 2861,
      "창조": 2862,
      "떨어진": 2863,
      "지하철": 2864,
      "장점": 2865,
      "고통": 2866,
      "투어": 2867,
      "출판": 2868,
      "호흡": 2869,
      "아쉬": 2870,
      "앱": 2871,
      "주최": 2872,
      "새벽": 2873,
      "AP": 2874,
      "무리": 2875,
      "##iv": 2876,
      "이자": 2877,
      "오바마": 2878,
      "통제": 2879,
      "이라크": 2880,
      "##파크": 2881,
      "압박": 2882,
      "##다가": 2883,
      "펼치": 2884,
      "이른바": 2885,
      "이기": 2886,
      "우주": 2887,
      "똑": 2888,
      "이종": 2889,
      "농가": 2890,
      "##IA": 2891,
      "성능": 2892,
      "꾼": 2893,
      "반복": 2894,
      "88": 2895,
      "잊": 2896,
      "##로스": 2897,
      "##니어": 2898,
      "CE": 2899,
      "##대학": 2900,
      "X": 2901,
      "2001": 2902,
      "##월드": 2903,
      "##ch": 2904,
      "정지": 2905,
      "제거": 2906,
      "원자": 2907,
      "##리스트": 2908,
      "##레이드": 2909,
      "매입": 2910,
      "베트남": 2911,
      "동일": 2912,
      "자전": 2913,
      "통계": 2914,
      "취소": 2915,
      "6000": 2916,
      "성명": 2917,
      "다수": 2918,
      "여건": 2919,
      "##지수": 2920,
      "일까": 2921,
      "화려": 2922,
      "연수": 2923,
      "8000": 2924,
      "예측": 2925,
      "소녀": 2926,
      "도쿄": 2927,
      "검증": 2928,
      "항상": 2929,
      "강제": 2930,
      "비리": 2931,
      "횡": 2932,
      "다운": 2933,
      "완료": 2934,
      "종교": 2935,
      "이사장": 2936,
      "##투자": 2937,
      "김동": 2938,
      "트위터": 2939,
      "낼": 2940,
      "표정": 2941,
      "수립": 2942,
      "##사장": 2943,
      "선임": 2944,
      "한계": 2945,
      "판사": 2946,
      "올려": 2947,
      "부실": 2948,
      "주력": 2949,
      "무슨": 2950,
      "정해": 2951,
      "단일": 2952,
      "금메달": 2953,
      "여러분": 2954,
      "사용자": 2955,
      "베이징": 2956,
      "분리": 2957,
      "차관": 2958,
      "자율": 2959,
      "유니": 2960,
      "내린": 2961,
      "##py": 2962,
      "못해": 2963,
      "채택": 2964,
      "검색": 2965,
      "엑": 2966,
      "특허": 2967,
      "→": 2968,
      "수능": 2969,
      "떨어졌": 2970,
      "##야구": 2971,
      "런던": 2972,
      "누가": 2973,
      "탄생": 2974,
      "이행": 2975,
      "##ter": 2976,
      "##학자": 2977,
      "교과서": 2978,
      "심의": 2979,
      "알려진": 2980,
      "끈": 2981,
      "당장": 2982,
      "가까이": 2983,
      "에이": 2984,
      "법정": 2985,
      "지요": 2986,
      "##경제": 2987,
      "예선": 2988,
      "##나다": 2989,
      "알려져": 2990,
      "밴": 2991,
      "할지": 2992,
      "상호": 2993,
      "시범": 2994,
      "싸움": 2995,
      "돌아가": 2996,
      "##다른": 2997,
      "상임": 2998,
      "학원": 2999,
      "78": 3000,
      "합병": 3001,
      "의도": 3002,
      "##게임": 3003,
      "완벽": 3004,
      "강의": 3005,
      "시청자": 3006,
      "신한": 3007,
      "##드리": 3008,
      "가동": 3009,
      "##테인": 3010,
      "석유": 3011,
      "회계": 3012,
      "힘든": 3013,
      "000": 3014,
      "##동차": 3015,
      "사법": 3016,
      "앤": 3017,
      "사무실": 3018,
      "##국장": 3019,
      "예고": 3020,
      "끝난": 3021,
      "CJ": 3022,
      "매출액": 3023,
      "띄": 3024,
      "##자체": 3025,
      "이용자": 3026,
      "벤처": 3027,
      "잉": 3028,
      "##연구소": 3029,
      "민주주의": 3030,
      "제목": 3031,
      "멋": 3032,
      "나올": 3033,
      "파업": 3034,
      "영장": 3035,
      "97": 3036,
      "파워": 3037,
      "박정": 3038,
      "첨단": 3039,
      "썼": 3040,
      "실업": 3041,
      "광장": 3042,
      "택시": 3043,
      "분류": 3044,
      "##부장": 3045,
      "기지": 3046,
      "숲": 3047,
      "지출": 3048,
      "협조": 3049,
      "화재": 3050,
      "##라스": 3051,
      "##30": 3052,
      "##리어": 3053,
      "##연맹": 3054,
      "맞춤": 3055,
      "삭": 3056,
      "##디션": 3057,
      "임원": 3058,
      "##뮤니": 3059,
      "공단": 3060,
      "모여": 3061,
      "말씀": 3062,
      "##스티": 3063,
      "가졌": 3064,
      "순매": 3065,
      "향해": 3066,
      "건립": 3067,
      "기상": 3068,
      "여의": 3069,
      "발휘": 3070,
      "○": 3071,
      "엄청": 3072,
      "당하": 3073,
      "##이너": 3074,
      "##ont": 3075,
      "불만": 3076,
      "조명": 3077,
      "##om": 3078,
      "명령": 3079,
      "카페": 3080,
      "79": 3081,
      "칠": 3082,
      "##10": 3083,
      "##영상": 3084,
      "경계": 3085,
      "파이": 3086,
      "가리": 3087,
      "전해졌": 3088,
      "농구": 3089,
      "차단": 3090,
      "원래": 3091,
      "자극": 3092,
      "권리": 3093,
      "동양": 3094,
      "노출": 3095,
      "전원": 3096,
      "지자체": 3097,
      "2018": 3098,
      "부과": 3099,
      "전공": 3100,
      "##어날": 3101,
      "호소": 3102,
      "##개발": 3103,
      "놀이": 3104,
      "연봉": 3105,
      "파리": 3106,
      "##철수": 3107,
      "는다는": 3108,
      "활발": 3109,
      "된다고": 3110,
      "대기": 3111,
      "경력": 3112,
      "직전": 3113,
      "연방": 3114,
      "이사회": 3115,
      "##공항": 3116,
      "물리": 3117,
      "개성": 3118,
      "심판": 3119,
      "이스": 3120,
      "총회": 3121,
      "##시안": 3122,
      "한테": 3123,
      "뿌리": 3124,
      "서민": 3125,
      "시상": 3126,
      "물러": 3127,
      "진술": 3128,
      "낳": 3129,
      "실무": 3130,
      "놀라": 3131,
      "매체": 3132,
      "대리": 3133,
      "진료": 3134,
      "영입": 3135,
      "오리": 3136,
      "아름다운": 3137,
      "혹은": 3138,
      "##50": 3139,
      "이외": 3140,
      "표준": 3141,
      "FTA": 3142,
      "물건": 3143,
      "본사": 3144,
      "연락": 3145,
      "인원": 3146,
      "캐나다": 3147,
      "지진": 3148,
      "오른쪽": 3149,
      "96": 3150,
      "재무": 3151,
      "달하": 3152,
      "전개": 3153,
      "풍부": 3154,
      "쟁": 3155,
      "아도": 3156,
      "메르": 3157,
      "미만": 3158,
      "##임스": 3159,
      "87": 3160,
      "캡": 3161,
      "##친다": 3162,
      "들어갔": 3163,
      "콘서트": 3164,
      "민원": 3165,
      "코리아": 3166,
      "##국제": 3167,
      "네트워크": 3168,
      "편집": 3169,
      "정치인": 3170,
      "계층": 3171,
      "방어": 3172,
      "##바로": 3173,
      "가로": 3174,
      "82": 3175,
      "성인": 3176,
      "종료": 3177,
      "무려": 3178,
      "짐": 3179,
      "##터리": 3180,
      "이래": 3181,
      "이웃": 3182,
      "클래": 3183,
      "남녀": 3184,
      "7000": 3185,
      "국내외": 3186,
      "데이": 3187,
      "답변": 3188,
      "됩": 3189,
      "갑자기": 3190,
      "자신감": 3191,
      "문자": 3192,
      "탁": 3193,
      "보냈": 3194,
      "늘어난": 3195,
      "곳곳": 3196,
      "종류": 3197,
      "그쳤": 3198,
      "느껴": 3199,
      "엔진": 3200,
      "합리": 3201,
      "자전거": 3202,
      "은퇴": 3203,
      "오염": 3204,
      "성분": 3205,
      "덕분": 3206,
      "스위": 3207,
      "##환경": 3208,
      "진짜": 3209,
      "연극": 3210,
      "선보이": 3211,
      "http": 3212,
      "취득": 3213,
      "94": 3214,
      "대안": 3215,
      "결론": 3216,
      "to": 3217,
      "아이템": 3218,
      "스피": 3219,
      "생긴": 3220,
      "은데": 3221,
      "연설": 3222,
      "유출": 3223,
      "늘리": 3224,
      "만화": 3225,
      "변동": 3226,
      "합류": 3227,
      "신인": 3228,
      "창원": 3229,
      "마쳤": 3230,
      "기분": 3231,
      "르": 3232,
      "파견": 3233,
      "위주": 3234,
      "옮겨": 3235,
      "사령": 3236,
      "##우드": 3237,
      "꺾": 3238,
      "개설": 3239,
      "아이디어": 3240,
      "김재": 3241,
      "by": 3242,
      "국방부": 3243,
      "86": 3244,
      "식당": 3245,
      "개별": 3246,
      "노무현": 3247,
      "##정부": 3248,
      "실수": 3249,
      "샌": 3250,
      "SNS": 3251,
      "##ong": 3252,
      "결의": 3253,
      "수수료": 3254,
      "뮤지컬": 3255,
      "정체": 3256,
      "사기": 3257,
      "낭": 3258,
      "관측": 3259,
      "돌려": 3260,
      "##천시": 3261,
      "시선": 3262,
      "기다리": 3263,
      "만났": 3264,
      "조언": 3265,
      "만약": 3266,
      "주자": 3267,
      "딱": 3268,
      "따뜻": 3269,
      "용인": 3270,
      "징역": 3271,
      "깔": 3272,
      "계산": 3273,
      "재료": 3274,
      "대법원": 3275,
      "윈": 3276,
      "저축": 3277,
      "##ad": 3278,
      "고문": 3279,
      "됩니다": 3280,
      "필수": 3281,
      "에어": 3282,
      "어울": 3283,
      "살아": 3284,
      "반도체": 3285,
      "시사": 3286,
      "점유": 3287,
      "93": 3288,
      "선호": 3289,
      "결제": 3290,
      "##총장": 3291,
      "이성": 3292,
      "부탁": 3293,
      "담배": 3294,
      "밟": 3295,
      "체포": 3296,
      "죽음": 3297,
      "뛰어난": 3298,
      "평창": 3299,
      "##FA": 3300,
      "취약": 3301,
      "만남": 3302,
      "최대한": 3303,
      "권한": 3304,
      "통보": 3305,
      "해상": 3306,
      "스트레스": 3307,
      "내다": 3308,
      "가득": 3309,
      "칭": 3310,
      "침체": 3311,
      "했었": 3312,
      "시인": 3313,
      "제정": 3314,
      "지명": 3315,
      "감시": 3316,
      "급등": 3317,
      "팀장": 3318,
      "청문": 3319,
      "바꿔": 3320,
      "조절": 3321,
      "모으": 3322,
      "##르트": 3323,
      "92": 3324,
      "김대": 3325,
      "대폭": 3326,
      "현행": 3327,
      "##ir": 3328,
      "교육부": 3329,
      "그냥": 3330,
      "커뮤니": 3331,
      "지대": 3332,
      "##right": 3333,
      "진실": 3334,
      "안철수": 3335,
      "상상": 3336,
      "바닥": 3337,
      "계좌": 3338,
      "라디오": 3339,
      "펜": 3340,
      "자문": 3341,
      "전세": 3342,
      "백화점": 3343,
      "■": 3344,
      "선배": 3345,
      "냐는": 3346,
      "81": 3347,
      "아요": 3348,
      "##복지": 3349,
      "셀": 3350,
      "##테인먼트": 3351,
      "조달": 3352,
      "극장": 3353,
      "노사": 3354,
      "자살": 3355,
      "훌": 3356,
      "추석": 3357,
      "##스토": 3358,
      "##시티": 3359,
      "본부장": 3360,
      "발매": 3361,
      "저지": 3362,
      "충돌": 3363,
      "마시": 3364,
      "##싱턴": 3365,
      "투쟁": 3366,
      "미니": 3367,
      "도와": 3368,
      "현안": 3369,
      "협정": 3370,
      "경비": 3371,
      "문재인": 3372,
      "re": 3373,
      "간부": 3374,
      "합동": 3375,
      "진다": 3376,
      "##자동차": 3377,
      "남부": 3378,
      "##TV": 3379,
      "논리": 3380,
      "나타내": 3381,
      "평생": 3382,
      "등판": 3383,
      "마친": 3384,
      "##ation": 3385,
      "페이스북": 3386,
      "브리": 3387,
      "드리": 3388,
      "##키스": 3389,
      "역전": 3390,
      "세우": 3391,
      "예금": 3392,
      "김현": 3393,
      "해명": 3394,
      "영양": 3395,
      "캠페인": 3396,
      "다하": 3397,
      "경찰서": 3398,
      "그만큼": 3399,
      "어깨": 3400,
      "정규직": 3401,
      "고등학교": 3402,
      "##르크": 3403,
      "조례": 3404,
      "훼": 3405,
      "서류": 3406,
      "동영상": 3407,
      "고발": 3408,
      "CEO": 3409,
      "89": 3410,
      "선출": 3411,
      "파트": 3412,
      "고향": 3413,
      "선보였": 3414,
      "##란히": 3415,
      "타점": 3416,
      "##PG": 3417,
      "따로": 3418,
      "몽": 3419,
      "여유": 3420,
      "올린": 3421,
      "접촉": 3422,
      "##드러": 3423,
      "##us": 3424,
      "거론": 3425,
      "통상": 3426,
      "수많": 3427,
      "91": 3428,
      "이론": 3429,
      "과연": 3430,
      "판정": 3431,
      "달려": 3432,
      "연승": 3433,
      "##정치": 3434,
      "났": 3435,
      "쥐": 3436,
      "키우": 3437,
      "유기": 3438,
      "##터테인먼트": 3439,
      "좁": 3440,
      "임기": 3441,
      "배당": 3442,
      "바르": 3443,
      "날씨": 3444,
      "출산": 3445,
      "입찰": 3446,
      "공기": 3447,
      "선박": 3448,
      "##관광": 3449,
      "그럼": 3450,
      "출입": 3451,
      "비서": 3452,
      "그려": 3453,
      "설비": 3454,
      "마이크": 3455,
      "대상자": 3456,
      "유사": 3457,
      "호남": 3458,
      "당한": 3459,
      "묶": 3460,
      "점차": 3461,
      "이민": 3462,
      "##코리아": 3463,
      "지도부": 3464,
      "적발": 3465,
      "추구": 3466,
      "정원": 3467,
      "중동": 3468,
      "수급": 3469,
      "궁금": 3470,
      "##스턴": 3471,
      "열렸": 3472,
      "완전": 3473,
      "협회": 3474,
      "생존": 3475,
      "##경찰": 3476,
      "어제": 3477,
      "정식": 3478,
      "83": 3479,
      "섹": 3480,
      "중앙일보": 3481,
      "랭": 3482,
      "예약": 3483,
      "농촌": 3484,
      "동생": 3485,
      "##pyright": 3486,
      "획득": 3487,
      "##호선": 3488,
      "보완": 3489,
      "할머니": 3490,
      "만기": 3491,
      "워싱턴": 3492,
      "부당": 3493,
      "해졌": 3494,
      "대처": 3495,
      "구글": 3496,
      "인민": 3497,
      "아닌가": 3498,
      "공산": 3499,
      "보급": 3500,
      "인공": 3501,
      "구분": 3502,
      "떠올": 3503,
      "600": 3504,
      "테이": 3505,
      "재판부": 3506,
      "120": 3507,
      "뚜": 3508,
      "IS": 3509,
      "##로드": 3510,
      "메뉴": 3511,
      "돋": 3512,
      "블루": 3513,
      "포스코": 3514,
      "됨": 3515,
      "기대감": 3516,
      "부서": 3517,
      "거두": 3518,
      "비즈": 3519,
      "상금": 3520,
      "결합": 3521,
      "강도": 3522,
      "##진흥": 3523,
      "여의도": 3524,
      "신속": 3525,
      "의문": 3526,
      "아프리카": 3527,
      "저렴": 3528,
      "주어": 3529,
      "질병": 3530,
      "는데요": 3531,
      "징계": 3532,
      "아빠": 3533,
      "상처": 3534,
      "면접": 3535,
      "절감": 3536,
      "테마": 3537,
      "깜": 3538,
      "품목": 3539,
      "출장": 3540,
      "##산시": 3541,
      "음반": 3542,
      "##너스": 3543,
      "매달": 3544,
      "펴": 3545,
      "교육감": 3546,
      "##케이션": 3547,
      "잠시": 3548,
      "근본": 3549,
      "투데이": 3550,
      "배상": 3551,
      "담보": 3552,
      "교환": 3553,
      "문제점": 3554,
      "##용차": 3555,
      "참가자": 3556,
      "좋아하": 3557,
      "##나이": 3558,
      "장학": 3559,
      "프리미엄": 3560,
      "##호텔": 3561,
      "연패": 3562,
      "패배": 3563,
      "초대": 3564,
      "떼": 3565,
      "상무": 3566,
      "간단": 3567,
      "셔": 3568,
      "휴가": 3569,
      "00": 3570,
      "가계": 3571,
      "불가피": 3572,
      "훼손": 3573,
      "LA": 3574,
      "##오프": 3575,
      "약간": 3576,
      "##파이": 3577,
      "이적": 3578,
      "사안": 3579,
      "그래도": 3580,
      "보낸": 3581,
      "멘": 3582,
      "무시": 3583,
      "IC": 3584,
      "Copyright": 3585,
      "들어서": 3586,
      "9000": 3587,
      "대행": 3588,
      "철학": 3589,
      "EU": 3590,
      "##워드": 3591,
      "이슬": 3592,
      "##지원": 3593,
      "자아": 3594,
      "##지사": 3595,
      "예전": 3596,
      "수영": 3597,
      "로써": 3598,
      "수시": 3599,
      "손님": 3600,
      "춤": 3601,
      "고정": 3602,
      "네이": 3603,
      "In": 3604,
      "텔레콤": 3605,
      "묵": 3606,
      "테스트": 3607,
      "상환": 3608,
      "연예인": 3609,
      "청약": 3610,
      "겁니다": 3611,
      "열차": 3612,
      "셋": 3613,
      "체력": 3614,
      "##축구": 3615,
      "문화재": 3616,
      "원정": 3617,
      "모았": 3618,
      "보관": 3619,
      "감각": 3620,
      "창의": 3621,
      "떠오": 3622,
      "세워": 3623,
      "동해": 3624,
      "벌였": 3625,
      "타이틀": 3626,
      "김진": 3627,
      "둘째": 3628,
      "FC": 3629,
      "신호": 3630,
      "대학원": 3631,
      "모니": 3632,
      "끝내": 3633,
      "혼란": 3634,
      "틈": 3635,
      "파괴": 3636,
      "##러리": 3637,
      "##은이": 3638,
      "##공단": 3639,
      "##라엘": 3640,
      "와인": 3641,
      "움직이": 3642,
      "##금융": 3643,
      "맞추": 3644,
      "해군": 3645,
      "go": 3646,
      "자사": 3647,
      "살리": 3648,
      "and": 3649,
      "PD": 3650,
      "유산": 3651,
      "퇴직": 3652,
      "침해": 3653,
      "##ur": 3654,
      "현황": 3655,
      "기원": 3656,
      "정착": 3657,
      "설득": 3658,
      "화장품": 3659,
      "신세": 3660,
      "이영": 3661,
      "이주": 3662,
      "싫": 3663,
      "허리": 3664,
      "서명": 3665,
      "광역": 3666,
      "급증": 3667,
      "무장": 3668,
      "도심": 3669,
      "아예": 3670,
      "취하": 3671,
      "최다": 3672,
      "연령": 3673,
      "이스라엘": 3674,
      "칸": 3675,
      "##ap": 3676,
      "안팎": 3677,
      "축하": 3678,
      "쇠": 3679,
      "심장": 3680,
      "선진국": 3681,
      "특검": 3682,
      "게다가": 3683,
      "상당히": 3684,
      "범행": 3685,
      "##회사": 3686,
      "집권": 3687,
      "에겐": 3688,
      "소형": 3689,
      "가입자": 3690,
      "널": 3691,
      "다섯": 3692,
      "재생": 3693,
      "명단": 3694,
      "시가": 3695,
      "빠지": 3696,
      "원전": 3697,
      "똑같": 3698,
      "##마스": 3699,
      "##가락": 3700,
      "##테크": 3701,
      "##카드": 3702,
      "찬성": 3703,
      "증권사": 3704,
      "##백화점": 3705,
      "논문": 3706,
      "적합": 3707,
      "신분": 3708,
      "붕": 3709,
      "부사장": 3710,
      "스토리": 3711,
      "선전": 3712,
      "소속사": 3713,
      "교회": 3714,
      "농협": 3715,
      "이어졌": 3716,
      "중계": 3717,
      "##시코": 3718,
      "폐기": 3719,
      "KIA": 3720,
      "비즈니스": 3721,
      "명품": 3722,
      "컬러": 3723,
      "행진": 3724,
      "나설": 3725,
      "부시": 3726,
      "토대": 3727,
      "측정": 3728,
      "점점": 3729,
      "모른다": 3730,
      "김경": 3731,
      "괜": 3732,
      "풀이": 3733,
      "강사": 3734,
      "잇따라": 3735,
      "신화": 3736,
      "분쟁": 3737,
      "상업": 3738,
      "수리": 3739,
      "제약": 3740,
      "고기": 3741,
      "##이즈": 3742,
      "입법": 3743,
      "박물관": 3744,
      "게시": 3745,
      "무게": 3746,
      "필리": 3747,
      "마디": 3748,
      "피하": 3749,
      "예능": 3750,
      "흉": 3751,
      "##버그": 3752,
      "내일": 3753,
      "경상": 3754,
      "길이": 3755,
      "실내": 3756,
      "떨어져": 3757,
      "단장": 3758,
      "초과": 3759,
      "모니터": 3760,
      "공포": 3761,
      "재난": 3762,
      "##업자": 3763,
      "임직원": 3764,
      "애니": 3765,
      "총액": 3766,
      "고령": 3767,
      "약세": 3768,
      "현대차": 3769,
      "##EC": 3770,
      "##의자": 3771,
      "MS": 3772,
      "강연": 3773,
      "던지": 3774,
      "갤럭": 3775,
      "통증": 3776,
      "##관리": 3777,
      "##닉스": 3778,
      "본선": 3779,
      "이수": 3780,
      "부작": 3781,
      "##들이": 3782,
      "치러": 3783,
      "보험료": 3784,
      "신임": 3785,
      "김기": 3786,
      "상가": 3787,
      "숫": 3788,
      "엠": 3789,
      "중대": 3790,
      "산하": 3791,
      "연휴": 3792,
      "컸": 3793,
      "뼈": 3794,
      "커지": 3795,
      "아닐": 3796,
      "살인": 3797,
      "성향": 3798,
      "재개": 3799,
      "##디아": 3800,
      "유동": 3801,
      "귀국": 3802,
      "의결": 3803,
      "소련": 3804,
      "##카오": 3805,
      "몰려": 3806,
      "출석": 3807,
      "사이버": 3808,
      "소프트웨어": 3809,
      "##식품": 3810,
      "청문회": 3811,
      "스크": 3812,
      "복잡": 3813,
      "사유": 3814,
      "한정": 3815,
      "음성": 3816,
      "못한다": 3817,
      "탄핵": 3818,
      "열정": 3819,
      "수지": 3820,
      "과목": 3821,
      "거기": 3822,
      "##방송": 3823,
      "신체": 3824,
      "도서관": 3825,
      "라면서": 3826,
      "##자원": 3827,
      "휴식": 3828,
      "앞둔": 3829,
      "거뒀": 3830,
      "셰": 3831,
      "지주": 3832,
      "컨설": 3833,
      "듯이": 3834,
      "수주": 3835,
      "쾌": 3836,
      "감동": 3837,
      "곧바로": 3838,
      "##람회": 3839,
      "##에이": 3840,
      "아이폰": 3841,
      "##ut": 3842,
      "##난다": 3843,
      "김민": 3844,
      "쳐": 3845,
      "서부": 3846,
      "03": 3847,
      "##덜란드": 3848,
      "IM": 3849,
      "독특": 3850,
      "거대": 3851,
      "##퍼스": 3852,
      "마라": 3853,
      "줘": 3854,
      "소감": 3855,
      "##중공업": 3856,
      "벌어지": 3857,
      "구상": 3858,
      "댄": 3859,
      "배제": 3860,
      "후배": 3861,
      "매도": 3862,
      "유력": 3863,
      "##ED": 3864,
      "편리": 3865,
      "네덜란드": 3866,
      "촉진": 3867,
      "나타냈": 3868,
      "윌": 3869,
      "멕": 3870,
      "수집": 3871,
      "##저스": 3872,
      "편지": 3873,
      "콩": 3874,
      "상관": 3875,
      "북부": 3876,
      "주부": 3877,
      "동네": 3878,
      "거짓": 3879,
      "아웃": 3880,
      "교실": 3881,
      "적응": 3882,
      "##정보": 3883,
      "요원": 3884,
      "##ow": 3885,
      "단어": 3886,
      "참고": 3887,
      "디스": 3888,
      "매주": 3889,
      "##민주당": 3890,
      "방해": 3891,
      "독도": 3892,
      "Jc": 3893,
      "못할": 3894,
      "잠실": 3895,
      "드러냈": 3896,
      "튀": 3897,
      "무릎": 3898,
      "결코": 3899,
      "직무": 3900,
      "숫자": 3901,
      "클린": 3902,
      "여수": 3903,
      "팝": 3904,
      "개통": 3905,
      "느낄": 3906,
      "##로그": 3907,
      "터뜨": 3908,
      "모자": 3909,
      "주간": 3910,
      "뮤직": 3911,
      "##힌다": 3912,
      "스카": 3913,
      "대학교": 3914,
      "애정": 3915,
      "김상": 3916,
      "당일": 3917,
      "조용": 3918,
      "생겼": 3919,
      "멜": 3920,
      "FI": 3921,
      "든지": 3922,
      "일시": 3923,
      "항의": 3924,
      "한때": 3925,
      "오피스": 3926,
      "이슬람": 3927,
      "터키": 3928,
      "##클릭": 3929,
      "시정": 3930,
      "중학교": 3931,
      "대장": 3932,
      "엉": 3933,
      "멈": 3934,
      "담긴": 3935,
      "유형": 3936,
      "총괄": 3937,
      "#": 3938,
      "##에스": 3939,
      "개소": 3940,
      "중구": 3941,
      "유입": 3942,
      "800": 3943,
      "##ontent": 3944,
      "소환": 3945,
      "전하": 3946,
      "##쇼핑": 3947,
      "엄청난": 3948,
      "작곡": 3949,
      "박찬": 3950,
      "대해선": 3951,
      "내내": 3952,
      "##겨레": 3953,
      "##ct": 3954,
      "마크": 3955,
      "변신": 3956,
      "폐쇄": 3957,
      "th": 3958,
      "섭취": 3959,
      "새정치": 3960,
      "아무리": 3961,
      "부위": 3962,
      "MC": 3963,
      "##피아": 3964,
      "##레기": 3965,
      "힘입": 3966,
      "흥미": 3967,
      "##비전": 3968,
      "고소": 3969,
      "잠재": 3970,
      "폭행": 3971,
      "한강": 3972,
      "##의장": 3973,
      "들어오": 3974,
      "GS": 3975,
      "채무": 3976,
      "몫": 3977,
      "앙": 3978,
      "193": 3979,
      "##안전": 3980,
      "화성": 3981,
      "무너": 3982,
      "김지": 3983,
      "건조": 3984,
      "한지": 3985,
      "바라보": 3986,
      "공동체": 3987,
      "부산시": 3988,
      "##브리": 3989,
      "김용": 3990,
      "치르": 3991,
      "둘러싼": 3992,
      "##ram": 3993,
      "증명": 3994,
      "사업비": 3995,
      "탈락": 3996,
      "CC": 3997,
      "질서": 3998,
      "i": 3999,
      "자고": 4000,
      "한겨레": 4001,
      "경매": 4002,
      "그간": 4003,
      "드러나": 4004,
      "프로야구": 4005,
      "섞": 4006,
      "대가": 4007,
      "사무총장": 4008,
      "허위": 4009,
      "사드": 4010,
      "근육": 4011,
      "소년": 4012,
      "세이": 4013,
      "흘러": 4014,
      "돼지": 4015,
      "강릉": 4016,
      "이병": 4017,
      "붉": 4018,
      "01": 4019,
      "바람직": 4020,
      "살펴보": 4021,
      "급여": 4022,
      "멕시코": 4023,
      "유학": 4024,
      "쓰레기": 4025,
      "##td": 4026,
      "유발": 4027,
      "넥센": 4028,
      "바이러스": 4029,
      "서해": 4030,
      "어려워": 4031,
      "충청": 4032,
      "포럼": 4033,
      "쏘": 4034,
      "분명히": 4035,
      "미세": 4036,
      "나눔": 4037,
      "포장": 4038,
      "이뤄졌": 4039,
      "항목": 4040,
      "서구": 4041,
      "저장": 4042,
      "대답": 4043,
      "펼쳤": 4044,
      "유저": 4045,
      "시리아": 4046,
      "과도": 4047,
      "참사": 4048,
      "바이오": 4049,
      "부패": 4050,
      "복원": 4051,
      "v": 4052,
      "팽": 4053,
      "지연": 4054,
      "##em": 4055,
      "녹색": 4056,
      "##대문": 4057,
      "천억": 4058,
      "의존": 4059,
      "천연": 4060,
      "보육": 4061,
      "##CC": 4062,
      "##op": 4063,
      "1990": 4064,
      "대단": 4065,
      "제조업": 4066,
      "##생명": 4067,
      "설명회": 4068,
      "평양": 4069,
      "##플러스": 4070,
      "변수": 4071,
      "쫓": 4072,
      "중반": 4073,
      "핀": 4074,
      "집안": 4075,
      "신중": 4076,
      "연다": 4077,
      "전시회": 4078,
      "앞세": 4079,
      "명확": 4080,
      "핫클릭": 4081,
      "모색": 4082,
      "##평양": 4083,
      "노후": 4084,
      "무한": 4085,
      "코너": 4086,
      "접속": 4087,
      "거치": 4088,
      "상한": 4089,
      "매니": 4090,
      "해요": 4091,
      "기에": 4092,
      "##약품": 4093,
      "나아가": 4094,
      "쿼": 4095,
      "후속": 4096,
      "별로": 4097,
      "링": 4098,
      "압력": 4099,
      "건너": 4100,
      "탑재": 4101,
      "일종": 4102,
      "필리핀": 4103,
      "간다": 4104,
      "승점": 4105,
      "텐": 4106,
      "전지": 4107,
      "걸리": 4108,
      "플랫": 4109,
      "뭔": 4110,
      "김대중": 4111,
      "주석": 4112,
      "대거": 4113,
      "베스트": 4114,
      "경향": 4115,
      "식물": 4116,
      "조심": 4117,
      "주체": 4118,
      "더해": 4119,
      "부자": 4120,
      "해제": 4121,
      "점포": 4122,
      "입증": 4123,
      "휴대폰": 4124,
      "##스키": 4125,
      "고등": 4126,
      "높였": 4127,
      "위성": 4128,
      "선사": 4129,
      "김병": 4130,
      "년도": 4131,
      "##포르": 4132,
      "내수": 4133,
      "##셔널": 4134,
      "강경": 4135,
      "##메이션": 4136,
      "싱글": 4137,
      "배려": 4138,
      "지내": 4139,
      "서초": 4140,
      "고시": 4141,
      "진화": 4142,
      "재벌": 4143,
      "다녀": 4144,
      "실행": 4145,
      "연인": 4146,
      "쏠": 4147,
      "로봇": 4148,
      "##베이": 4149,
      "한도": 4150,
      "차기": 4151,
      "밴드": 4152,
      "토론회": 4153,
      "공통": 4154,
      "실태": 4155,
      "확충": 4156,
      "사원": 4157,
      "분노": 4158,
      "초점": 4159,
      "주차장": 4160,
      "스테": 4161,
      "추적": 4162,
      "편안": 4163,
      "타율": 4164,
      "곽": 4165,
      "보일": 4166,
      "##종합": 4167,
      "공직": 4168,
      "사우": 4169,
      "아시안": 4170,
      "##ce": 4171,
      "입시": 4172,
      "전부": 4173,
      "용역": 4174,
      "국장": 4175,
      "선보인다": 4176,
      "아우": 4177,
      "The": 4178,
      "격차": 4179,
      "유행": 4180,
      "세웠": 4181,
      "인프라": 4182,
      "톱": 4183,
      "협의회": 4184,
      "발달": 4185,
      "야권": 4186,
      "공략": 4187,
      "##이익": 4188,
      "꼴": 4189,
      "닭": 4190,
      "메르스": 4191,
      "급격": 4192,
      "태국": 4193,
      "사단": 4194,
      "이혼": 4195,
      "영향력": 4196,
      "공제": 4197,
      "피아": 4198,
      "스위스": 4199,
      "깨끗": 4200,
      "##레일": 4201,
      "이대": 4202,
      "700": 4203,
      "수색": 4204,
      "빙": 4205,
      "도중": 4206,
      "소중": 4207,
      "나중": 4208,
      "발급": 4209,
      "넷": 4210,
      "##ouse": 4211,
      "뜨거운": 4212,
      "즉각": 4213,
      "굉": 4214,
      "동맹": 4215,
      "중점": 4216,
      "##리포": 4217,
      "주위": 4218,
      "대금": 4219,
      "납부": 4220,
      "1999": 4221,
      "##IS": 4222,
      "광주시": 4223,
      "유권자": 4224,
      "동남": 4225,
      "일자": 4226,
      "임신": 4227,
      "잉글": 4228,
      "앞선": 4229,
      "깊이": 4230,
      "규칙": 4231,
      "포르": 4232,
      "든다": 4233,
      "주연": 4234,
      "할까": 4235,
      "##ss": 4236,
      "고사": 4237,
      "시달": 4238,
      "드러내": 4239,
      "고요": 4240,
      "의뢰": 4241,
      "##뱅크": 4242,
      "벌써": 4243,
      "##현진": 4244,
      "읍": 4245,
      "찾아가": 4246,
      "1998": 4247,
      "전제": 4248,
      "봐야": 4249,
      "버렸": 4250,
      "오프": 4251,
      "들어간": 4252,
      "전후": 4253,
      "영화제": 4254,
      "그럴": 4255,
      "인문": 4256,
      "빠진": 4257,
      "학술": 4258,
      "솔직": 4259,
      "고개": 4260,
      "형제": 4261,
      "종이": 4262,
      "괜찮": 4263,
      "동작": 4264,
      "아베": 4265,
      "##80": 4266,
      "문서": 4267,
      "가상": 4268,
      "실종": 4269,
      "공화당": 4270,
      "춘천": 4271,
      "무선": 4272,
      "선도": 4273,
      "나갔": 4274,
      "기조": 4275,
      "##ag": 4276,
      "맞서": 4277,
      "살해": 4278,
      "연료": 4279,
      "장식": 4280,
      "청사": 4281,
      "다행": 4282,
      "케이블": 4283,
      "다루": 4284,
      "윤리": 4285,
      "김치": 4286,
      "통해서": 4287,
      "온도": 4288,
      "돋보": 4289,
      "언더": 4290,
      "1500": 4291,
      "텍": 4292,
      "소문": 4293,
      "##네시아": 4294,
      "농산물": 4295,
      "프레": 4296,
      "구하": 4297,
      "비교적": 4298,
      "가공": 4299,
      "박주": 4300,
      "받아들이": 4301,
      "##지어": 4302,
      "조항": 4303,
      "꼼": 4304,
      "구현": 4305,
      "으므로": 4306,
      "개그": 4307,
      "렌": 4308,
      "이중": 4309,
      "금속": 4310,
      "지나치": 4311,
      "부가": 4312,
      "레드": 4313,
      "잖": 4314,
      "군수": 4315,
      "192": 4316,
      "시중": 4317,
      "우즈": 4318,
      "##한국": 4319,
      "설문": 4320,
      "톤": 4321,
      "포털": 4322,
      "상영": 4323,
      "일방": 4324,
      "대외": 4325,
      "##트로": 4326,
      "파트너": 4327,
      "공세": 4328,
      "보조금": 4329,
      "방사": 4330,
      "용산": 4331,
      "성폭": 4332,
      "개장": 4333,
      "그게": 4334,
      "안양": 4335,
      "핸": 4336,
      "인연": 4337,
      "박수": 4338,
      "각오": 4339,
      "##말로": 4340,
      "촛": 4341,
      "재배": 4342,
      "정하": 4343,
      "환영": 4344,
      "압수": 4345,
      "조지": 4346,
      "##아이": 4347,
      "올라가": 4348,
      "노트": 4349,
      "##회의": 4350,
      "군인": 4351,
      "갤럭시": 4352,
      "붕괴": 4353,
      "일으키": 4354,
      "일원": 4355,
      "실정": 4356,
      "과세": 4357,
      "공인": 4358,
      "세부": 4359,
      "조각": 4360,
      "랭킹": 4361,
      "상하이": 4362,
      "트렌": 4363,
      "몰아": 4364,
      "메모": 4365,
      "##달러": 4366,
      "진상": 4367,
      "맥주": 4368,
      "빠졌": 4369,
      "벌금": 4370,
      "주류": 4371,
      "냄": 4372,
      "생물": 4373,
      "컨설팅": 4374,
      "##예술": 4375,
      "굉장": 4376,
      "신입": 4377,
      "빗": 4378,
      "토록": 4379,
      "##조트": 4380,
      "한층": 4381,
      "휩": 4382,
      "190": 4383,
      "Ltd": 4384,
      "##어트": 4385,
      "부작용": 4386,
      "##스티벌": 4387,
      "높여": 4388,
      "동북": 4389,
      "내다봤": 4390,
      "보존": 4391,
      "맞이": 4392,
      "일반인": 4393,
      "벼": 4394,
      "순환": 4395,
      "겹": 4396,
      "찌": 4397,
      "비행기": 4398,
      "착수": 4399,
      "갖춰": 4400,
      "AI": 4401,
      "주재": 4402,
      "##um": 4403,
      "승객": 4404,
      "이승엽": 4405,
      "행정부": 4406,
      "클래식": 4407,
      "규명": 4408,
      "개헌": 4409,
      "액션": 4410,
      "사무소": 4411,
      "는다고": 4412,
      "캘": 4413,
      "입지": 4414,
      "싱가": 4415,
      "진로": 4416,
      "인용": 4417,
      "좌우": 4418,
      "학기": 4419,
      "당분": 4420,
      "비타": 4421,
      "대한항공": 4422,
      "용품": 4423,
      "중도": 4424,
      "250": 4425,
      "##사회": 4426,
      "나선다": 4427,
      "번역": 4428,
      "출자": 4429,
      "##으나": 4430,
      "군대": 4431,
      "여객": 4432,
      "늘어났": 4433,
      "이른다": 4434,
      "바른": 4435,
      "뒤집": 4436,
      "국세": 4437,
      "시상식": 4438,
      "일간": 4439,
      "05": 4440,
      "깜짝": 4441,
      "덩": 4442,
      "중순": 4443,
      "##통합": 4444,
      "냉장": 4445,
      "비디오": 4446,
      "밀려": 4447,
      "관중": 4448,
      "해진": 4449,
      "로마": 4450,
      "해운": 4451,
      "끼리": 4452,
      "진영": 4453,
      "순수": 4454,
      "전파": 4455,
      "듀": 4456,
      "줄여": 4457,
      "주기": 4458,
      "뚜렷": 4459,
      "커뮤니티": 4460,
      "김연": 4461,
      "여권": 4462,
      "위축": 4463,
      "누적": 4464,
      "##TE": 4465,
      "인도네시아": 4466,
      "아카": 4467,
      "즉시": 4468,
      "##지법": 4469,
      "유해": 4470,
      "촛불": 4471,
      "산림": 4472,
      "중부": 4473,
      "섬유": 4474,
      "법무부": 4475,
      "정밀": 4476,
      "##라도": 4477,
      "슛": 4478,
      "191": 4479,
      "가맹": 4480,
      "지켜보": 4481,
      "뚫": 4482,
      "과시": 4483,
      "워크": 4484,
      "세미": 4485,
      "##민주연합": 4486,
      "융합": 4487,
      "최신": 4488,
      "두려": 4489,
      "화물": 4490,
      "벌어진": 4491,
      "플랫폼": 4492,
      "우위": 4493,
      "국채": 4494,
      "철저히": 4495,
      "폭탄": 4496,
      "하위": 4497,
      "소수": 4498,
      "박스": 4499,
      "##루션": 4500,
      "NC": 4501,
      "##rama": 4502,
      "부각": 4503,
      "착용": 4504,
      "신선": 4505,
      "고전": 4506,
      "각자": 4507,
      "농민": 4508,
      "땐": 4509,
      "종로": 4510,
      "응급": 4511,
      "새해": 4512,
      "로스": 4513,
      "장르": 4514,
      "잉글랜드": 4515,
      "둔화": 4516,
      "##ine": 4517,
      "돌입": 4518,
      "Drama": 4519,
      "없애": 4520,
      "표명": 4521,
      "김수": 4522,
      "아무런": 4523,
      "대목": 4524,
      "##레인": 4525,
      "만원": 4526,
      "매치": 4527,
      "트리": 4528,
      "흰": 4529,
      "건전": 4530,
      "지닌": 4531,
      "멀티": 4532,
      "朴": 4533,
      "신동": 4534,
      "스키": 4535,
      "전당": 4536,
      "##Hub": 4537,
      "##선수": 4538,
      "##소프트": 4539,
      "##House": 4540,
      "##ver": 4541,
      "전담": 4542,
      "된다면": 4543,
      "Jcontent": 4544,
      "DramaHouse": 4545,
      "JcontentHub": 4546,
      "추억": 4547,
      "만날": 4548,
      "사업장": 4549,
      "기후": 4550,
      "증진": 4551,
      "육군": 4552,
      "大": 4553,
      "FA": 4554,
      "아기": 4555,
      "완공": 4556,
      "IP": 4557,
      "제국": 4558,
      "메이저리그": 4559,
      "##사이트": 4560,
      "남기": 4561,
      "창작": 4562,
      "##ula": 4563,
      "##런스": 4564,
      "##안타": 4565,
      "수험": 4566,
      "form": 4567,
      "##무역": 4568,
      "압도": 4569,
      "저항": 4570,
      "아나": 4571,
      "관세": 4572,
      "스웨": 4573,
      "한글": 4574,
      "그랬": 4575,
      "최소한": 4576,
      "실장": 4577,
      "강정": 4578,
      "건의": 4579,
      "마침": 4580,
      "버전": 4581,
      "##노동": 4582,
      "포스트": 4583,
      "추락": 4584,
      "덮": 4585,
      "습니까": 4586,
      "어른": 4587,
      "생겨": 4588,
      "시급": 4589,
      "몬": 4590,
      "들이": 4591,
      "누군": 4592,
      "가시": 4593,
      "##미디어": 4594,
      "영웅": 4595,
      "1997": 4596,
      "뭉": 4597,
      "비전": 4598,
      "정성": 4599,
      "배정": 4600,
      "##기구": 4601,
      "넘겨": 4602,
      "동참": 4603,
      "목숨": 4604,
      "경찰청": 4605,
      "도발": 4606,
      "마당": 4607,
      "준공": 4608,
      "마르": 4609,
      "와이": 4610,
      "타수": 4611,
      "황금": 4612,
      "남쪽": 4613,
      "담겨": 4614,
      "측근": 4615,
      "용기": 4616,
      "분양가": 4617,
      "생길": 4618,
      "당사자": 4619,
      "비자": 4620,
      "옵": 4621,
      "넘치": 4622,
      "해고": 4623,
      "디자이너": 4624,
      "게재": 4625,
      "캡처": 4626,
      "학자": 4627,
      "달한다": 4628,
      "##os": 4629,
      "보인": 4630,
      "심지어": 4631,
      "흥행": 4632,
      "격려": 4633,
      "억제": 4634,
      "베타": 4635,
      "책임자": 4636,
      "엔터테인먼트": 4637,
      "공헌": 4638,
      "당연히": 4639,
      "잖아": 4640,
      "노리": 4641,
      "통산": 4642,
      "의학": 4643,
      "갈수록": 4644,
      "싱가포르": 4645,
      "반박": 4646,
      "인류": 4647,
      "수록": 4648,
      "단순히": 4649,
      "특유": 4650,
      "가전": 4651,
      "원유": 4652,
      "1980": 4653,
      "##th": 4654,
      "블록": 4655,
      "핑": 4656,
      "선수단": 4657,
      "무상": 4658,
      "급락": 4659,
      "##지방": 4660,
      "음주": 4661,
      "커플": 4662,
      "항공기": 4663,
      "시계": 4664,
      "손상": 4665,
      "겨냥": 4666,
      "##스포": 4667,
      "##려야": 4668,
      "마트": 4669,
      "명칭": 4670,
      "음료": 4671,
      "##수산": 4672,
      "##하우": 4673,
      "골프장": 4674,
      "발효": 4675,
      "자국": 4676,
      "승진": 4677,
      "각국": 4678,
      "당분간": 4679,
      "앞장": 4680,
      "주행": 4681,
      "박영": 4682,
      "강점": 4683,
      "##협의회": 4684,
      "흑자": 4685,
      "소지": 4686,
      "클라": 4687,
      "이지": 4688,
      "훌륭": 4689,
      "태풍": 4690,
      "도덕": 4691,
      "중국인": 4692,
      "US": 4693,
      "소요": 4694,
      "선제": 4695,
      "헤어": 4696,
      "래": 4697,
      "쇼핑몰": 4698,
      "내달": 4699,
      "외교부": 4700,
      "재물": 4701,
      "마운드": 4702,
      "느낀": 4703,
      "제고": 4704,
      "목포": 4705,
      "카카오": 4706,
      "##사이": 4707,
      "더불어민주당": 4708,
      "근처": 4709,
      "구제": 4710,
      "중견": 4711,
      "부총리": 4712,
      "formula": 4713,
      "소외": 4714,
      "비타민": 4715,
      "##다면": 4716,
      "족": 4717,
      "견해": 4718,
      "해안": 4719,
      "강남구": 4720,
      "기름": 4721,
      "조화": 4722,
      "과감": 4723,
      "실망": 4724,
      "전역": 4725,
      "대량": 4726,
      "분당": 4727,
      "추모": 4728,
      "장착": 4729,
      "고유": 4730,
      "##DP": 4731,
      "흡수": 4732,
      "시원": 4733,
      "##마크": 4734,
      "철회": 4735,
      "엇": 4736,
      "존중": 4737,
      "구도": 4738,
      "고속도로": 4739,
      "의류": 4740,
      "록": 4741,
      "탈출": 4742,
      "양상": 4743,
      "스케": 4744,
      "상당수": 4745,
      "맑": 4746,
      "브리핑": 4747,
      "행보": 4748,
      "저자": 4749,
      "도서": 4750,
      "##ab": 4751,
      "애니메이션": 4752,
      "들려": 4753,
      "##조건": 4754,
      "몰랐": 4755,
      "에서부터": 4756,
      "금호": 4757,
      "무용": 4758,
      "흔히": 4759,
      "파일": 4760,
      "신흥": 4761,
      "굉장히": 4762,
      "널리": 4763,
      "대구시": 4764,
      "관찰": 4765,
      "소셜": 4766,
      "지위": 4767,
      "저희": 4768,
      "주한": 4769,
      "##원장": 4770,
      "햇": 4771,
      "##데미": 4772,
      "다짐": 4773,
      "결심": 4774,
      "차장": 4775,
      "코드": 4776,
      "타선": 4777,
      "대원": 4778,
      "##보드": 4779,
      "주전": 4780,
      "습관": 4781,
      "주소": 4782,
      "영광": 4783,
      "NH": 4784,
      "쿼터": 4785,
      "류현진": 4786,
      "##구장": 4787,
      "박지성": 4788,
      "해설": 4789,
      "오해": 4790,
      "모은": 4791,
      "상인": 4792,
      "가게": 4793,
      "##봐야": 4794,
      "그래픽": 4795,
      "직장인": 4796,
      "달했": 4797,
      "부활": 4798,
      "북쪽": 4799,
      "유전자": 4800,
      "김정은": 4801,
      "유예": 4802,
      "원리": 4803,
      "교황": 4804,
      "스런": 4805,
      "운전자": 4806,
      "쇄": 4807,
      "##서울": 4808,
      "민감": 4809,
      "클린턴": 4810,
      "입원": 4811,
      "방학": 4812,
      "과일": 4813,
      "연세대": 4814,
      "대륙": 4815,
      "어려울": 4816,
      "취급": 4817,
      "붙잡": 4818,
      "진학": 4819,
      "##프리": 4820,
      "개사": 4821,
      "##버스": 4822,
      "##ive": 4823,
      "곁": 4824,
      "고도": 4825,
      "사로": 4826,
      "내각": 4827,
      "##all": 4828,
      "고백": 4829,
      "디스플레이": 4830,
      "해준다": 4831,
      "이끄": 4832,
      "고수": 4833,
      "화이트": 4834,
      "##레이션": 4835,
      "세운": 4836,
      "가요": 4837,
      "파티": 4838,
      "철강": 4839,
      "학위": 4840,
      "신장": 4841,
      "리더십": 4842,
      "물류": 4843,
      "ch": 4844,
      "구미": 4845,
      "자식": 4846,
      "내외": 4847,
      "극단": 4848,
      "양식": 4849,
      "r": 4850,
      "##사스": 4851,
      "시세": 4852,
      "지향": 4853,
      "와서": 4854,
      "여서": 4855,
      "권고": 4856,
      "정서": 4857,
      "##라운드": 4858,
      "##아시아": 4859,
      "##키지": 4860,
      "적정": 4861,
      "##시마": 4862,
      "느라": 4863,
      "그치": 4864,
      "스크린": 4865,
      "밸": 4866,
      "##타운": 4867,
      "나쁜": 4868,
      "줄기": 4869,
      "##조선": 4870,
      "박찬호": 4871,
      "현역": 4872,
      "##생활": 4873,
      "외모": 4874,
      "옹": 4875,
      "##연히": 4876,
      "기쁨": 4877,
      "첫째": 4878,
      "미드": 4879,
      "CN": 4880,
      "이뤄진": 4881,
      "독서": 4882,
      "유아": 4883,
      "대체로": 4884,
      "남겼": 4885,
      "방위": 4886,
      "실시간": 4887,
      "땀": 4888,
      "승용차": 4889,
      "건수": 4890,
      "경위": 4891,
      "연애": 4892,
      "위안부": 4893,
      "##독교": 4894,
      "##티나": 4895,
      "110": 4896,
      "끊임": 4897,
      "##끄러": 4898,
      "상생": 4899,
      "대대": 4900,
      "자회사": 4901,
      "입단": 4902,
      "구호": 4903,
      "나란히": 4904,
      "김희": 4905,
      "##로운": 4906,
      "웅": 4907,
      "사로잡": 4908,
      "투구": 4909,
      "빌려": 4910,
      "네요": 4911,
      "결혼식": 4912,
      "금감": 4913,
      "##바지": 4914,
      "뇌물": 4915,
      "솔로": 4916,
      "의상": 4917,
      "장악": 4918,
      "원주": 4919,
      "금강": 4920,
      "위탁": 4921,
      "즐거": 4922,
      "도약": 4923,
      "드라이": 4924,
      "무사": 4925,
      "투기": 4926,
      "막판": 4927,
      "수렴": 4928,
      "누르": 4929,
      "경영자": 4930,
      "##천군": 4931,
      "감성": 4932,
      "도민": 4933,
      "충전": 4934,
      "아메": 4935,
      "기성": 4936,
      "시술": 4937,
      "명절": 4938,
      "돌아오": 4939,
      "정수": 4940,
      "계절": 4941,
      "지능": 4942,
      "##투자증권": 4943,
      "플레이오프": 4944,
      "댓": 4945,
      "보전": 4946,
      "쉬운": 4947,
      "##로리": 4948,
      "정확히": 4949,
      "자마": 4950,
      "풍경": 4951,
      "애초": 4952,
      "IMF": 4953,
      "골드": 4954,
      "일각": 4955,
      "ha": 4956,
      "타임": 4957,
      "금품": 4958,
      "운명": 4959,
      "단말": 4960,
      "로비": 4961,
      "조합원": 4962,
      "고생": 4963,
      "하락세": 4964,
      "친박": 4965,
      "국무총리": 4966,
      "부양": 4967,
      "증정": 4968,
      "지낸": 4969,
      "##드로": 4970,
      "방영": 4971,
      "유승": 4972,
      "께서": 4973,
      "게이": 4974,
      "##70": 4975,
      "야외": 4976,
      "지냈": 4977,
      "납품": 4978,
      "탄력": 4979,
      "최악": 4980,
      "의당": 4981,
      "복수": 4982,
      "심한": 4983,
      "걸려": 4984,
      "반성": 4985,
      "롤": 4986,
      "##무성": 4987,
      "보여준다": 4988,
      "##일리": 4989,
      "앓": 4990,
      "운송": 4991,
      "고려대": 4992,
      "##hot": 4993,
      "자라": 4994,
      "비서관": 4995,
      "박상": 4996,
      "불거": 4997,
      "순매수": 4998,
      "동력": 4999,
      "닫": 5000,
      "##져야": 5001,
      "중장": 5002,
      "스페": 5003,
      "감축": 5004,
      "일어난": 5005,
      "스튜": 5006,
      "김해": 5007,
      "제휴": 5008,
      "미소": 5009,
      "예산안": 5010,
      "##스테": 5011,
      "넘기": 5012,
      "##고속": 5013,
      "경로": 5014,
      "일일": 5015,
      "당원": 5016,
      "닮": 5017,
      "체크": 5018,
      "화장실": 5019,
      "공군": 5020,
      "심화": 5021,
      "민생": 5022,
      "재능": 5023,
      "이건": 5024,
      "볼넷": 5025,
      "요건": 5026,
      "농장": 5027,
      "병행": 5028,
      "한국전": 5029,
      "불교": 5030,
      "##감독": 5031,
      "일환": 5032,
      "판매량": 5033,
      "평등": 5034,
      "전월": 5035,
      "##나마": 5036,
      "삼진": 5037,
      "가방": 5038,
      "박람회": 5039,
      "권위": 5040,
      "시나": 5041,
      "차익": 5042,
      "밝혀졌": 5043,
      "연관": 5044,
      "뭔가": 5045,
      "일찍": 5046,
      "논쟁": 5047,
      "엘리": 5048,
      "아트": 5049,
      "증인": 5050,
      "장수": 5051,
      "오가": 5052,
      "St": 5053,
      "제작진": 5054,
      "비례": 5055,
      "조리": 5056,
      "##노총": 5057,
      "어떠": 5058,
      "턱": 5059,
      "회전": 5060,
      "차질": 5061,
      "##OC": 5062,
      "유망": 5063,
      "간접": 5064,
      "남겨": 5065,
      "유족": 5066,
      "해체": 5067,
      "##렉스": 5068,
      "or": 5069,
      "추격": 5070,
      "누군가": 5071,
      "##페라": 5072,
      "2020": 5073,
      "스웨덴": 5074,
      "지침": 5075,
      "180": 5076,
      "하여": 5077,
      "가질": 5078,
      "증언": 5079,
      "신세계": 5080,
      "##하우스": 5081,
      "거든": 5082,
      "대립": 5083,
      "한국어": 5084,
      "새정치민주연합": 5085,
      "빠져나": 5086,
      "FIFA": 5087,
      "가사": 5088,
      "지인": 5089,
      "##타이": 5090,
      "향한": 5091,
      "강좌": 5092,
      "수상자": 5093,
      "아쉬움": 5094,
      "수여": 5095,
      "##회관": 5096,
      "작동": 5097,
      "어린이집": 5098,
      "피로": 5099,
      "닥": 5100,
      "학력": 5101,
      "결승전": 5102,
      "임무": 5103,
      "위생": 5104,
      "냉장고": 5105,
      "발전소": 5106,
      "##대회": 5107,
      "##ore": 5108,
      "초래": 5109,
      "무조건": 5110,
      "##60": 5111,
      "패키지": 5112,
      "젊은이": 5113,
      "자리잡": 5114,
      "재해": 5115,
      "평택": 5116,
      "친환경": 5117,
      "특위": 5118,
      "받아들여": 5119,
      "호응": 5120,
      "관점": 5121,
      "타석": 5122,
      "키워": 5123,
      "소폭": 5124,
      "유연": 5125,
      "돌아온": 5126,
      "학과": 5127,
      "공학": 5128,
      "난다": 5129,
      "고대": 5130,
      "발목": 5131,
      "자마자": 5132,
      "김광": 5133,
      "비록": 5134,
      "독점": 5135,
      "리스크": 5136,
      "금전": 5137,
      "컨디션": 5138,
      "야간": 5139,
      "진흥": 5140,
      "오랫": 5141,
      "자제": 5142,
      "세미나": 5143,
      "내정": 5144,
      "관람객": 5145,
      "편입": 5146,
      "히트": 5147,
      "흡연": 5148,
      "냄새": 5149,
      "##키스탄": 5150,
      "역임": 5151,
      "##ia": 5152,
      "출근": 5153,
      "노하우": 5154,
      "원활": 5155,
      "낮추": 5156,
      "미칠": 5157,
      "가볍": 5158,
      "세무": 5159,
      "빼앗": 5160,
      "스탠": 5161,
      "만만": 5162,
      "##운동": 5163,
      "수습": 5164,
      "東": 5165,
      "안심": 5166,
      "서울중앙": 5167,
      "물품": 5168,
      "장사": 5169,
      "에다": 5170,
      "차세대": 5171,
      "분할": 5172,
      "강행": 5173,
      "왜곡": 5174,
      "##보험": 5175,
      "조만": 5176,
      "숙박": 5177,
      "교섭": 5178,
      "동향": 5179,
      "한류": 5180,
      "##도시": 5181,
      "길방": 5182,
      "가벼": 5183,
      "CD": 5184,
      "관행": 5185,
      "근대": 5186,
      "무산": 5187,
      "당첨": 5188,
      "유세": 5189,
      "일관": 5190,
      "가속": 5191,
      "##립니다": 5192,
      "유효": 5193,
      "전액": 5194,
      "칭찬": 5195,
      "##아웃": 5196,
      "you": 5197,
      "엄격": 5198,
      "전무": 5199,
      "색깔": 5200,
      "증대": 5201,
      "짝": 5202,
      "명의": 5203,
      "상원": 5204,
      "트레이": 5205,
      "일요일": 5206,
      "수강": 5207,
      "동구": 5208,
      "아쉽": 5209,
      "간판": 5210,
      "##스카": 5211,
      "##40": 5212,
      "최적": 5213,
      "젖": 5214,
      "##악관": 5215,
      "돌리": 5216,
      "늘어날": 5217,
      "장학금": 5218,
      "티켓": 5219,
      "##프로": 5220,
      "멀리": 5221,
      "이태": 5222,
      "충실": 5223,
      "언더파": 5224,
      "신라": 5225,
      "지리": 5226,
      "종전": 5227,
      "장난": 5228,
      "##박물관": 5229,
      "드림": 5230,
      "출동": 5231,
      "명문": 5232,
      "걸음": 5233,
      "회수": 5234,
      "가깝": 5235,
      "오랫동안": 5236,
      "##이크": 5237,
      "흐르": 5238,
      "재원": 5239,
      "잦": 5240,
      "혈액": 5241,
      "##oc": 5242,
      "오브": 5243,
      "다이어트": 5244,
      "덴": 5245,
      "끄": 5246,
      "찰": 5247,
      "신부": 5248,
      "중개": 5249,
      "코트": 5250,
      "일본인": 5251,
      "IB": 5252,
      "##다시": 5253,
      "농림": 5254,
      "시공": 5255,
      "인턴": 5256,
      "##월드컵": 5257,
      "구장": 5258,
      "기독교": 5259,
      "공직자": 5260,
      "##닷컴": 5261,
      "워낙": 5262,
      "##피탈": 5263,
      "유상": 5264,
      "화합": 5265,
      "청산": 5266,
      "특화": 5267,
      "시신": 5268,
      "##FC": 5269,
      "영동": 5270,
      "지역구": 5271,
      "는다면": 5272,
      "##세서": 5273,
      "추첨": 5274,
      "스프": 5275,
      "성실": 5276,
      "##받침": 5277,
      "##우리": 5278,
      "공고": 5279,
      "한인": 5280,
      "프린": 5281,
      "되돌": 5282,
      "랑": 5283,
      "보여줬": 5284,
      "복구": 5285,
      "감상": 5286,
      "수당": 5287,
      "팩": 5288,
      "##북도": 5289,
      "##ak": 5290,
      "##스팅": 5291,
      "서양": 5292,
      "강수": 5293,
      "몰리": 5294,
      "##다니": 5295,
      "우울": 5296,
      "슬로": 5297,
      "성형": 5298,
      "세탁": 5299,
      "##학회": 5300,
      "조만간": 5301,
      "위상": 5302,
      "거래소": 5303,
      "국산": 5304,
      "김포": 5305,
      "용어": 5306,
      "이념": 5307,
      "철거": 5308,
      "동점": 5309,
      "목사": 5310,
      "한창": 5311,
      "네이버": 5312,
      "조세": 5313,
      "심하": 5314,
      "뷰": 5315,
      "댓글": 5316,
      "##화문": 5317,
      "장군": 5318,
      "달아": 5319,
      "이룬": 5320,
      "##OS": 5321,
      "##hoto": 5322,
      "플래": 5323,
      "정작": 5324,
      "장례": 5325,
      "##리티": 5326,
      "오피스텔": 5327,
      "멸": 5328,
      "군산": 5329,
      "##런트": 5330,
      "김정일": 5331,
      "아무개": 5332,
      "아끼": 5333,
      "며칠": 5334,
      "배달": 5335,
      "##아버지": 5336,
      "기상청": 5337,
      "수험생": 5338,
      "임상": 5339,
      "net": 5340,
      "몇몇": 5341,
      "뒤늦": 5342,
      "##기획": 5343,
      "충족": 5344,
      "증세": 5345,
      "수면": 5346,
      "하우스": 5347,
      "##국대": 5348,
      "마주": 5349,
      "간호": 5350,
      "확신": 5351,
      "강동": 5352,
      "버린": 5353,
      "중고": 5354,
      "운항": 5355,
      "##ark": 5356,
      "배포": 5357,
      "잡지": 5358,
      "개척": 5359,
      "에요": 5360,
      "창립": 5361,
      "더블": 5362,
      "학년도": 5363,
      "코미": 5364,
      "130": 5365,
      "빌딩": 5366,
      "익숙": 5367,
      "사라지": 5368,
      "배터리": 5369,
      "느꼈": 5370,
      "지목": 5371,
      "청장": 5372,
      "밭": 5373,
      "급식": 5374,
      "극대": 5375,
      "기법": 5376,
      "사후": 5377,
      "현직": 5378,
      "오스트": 5379,
      "국면": 5380,
      "페스티벌": 5381,
      "##미널": 5382,
      "잡아": 5383,
      "어울리": 5384,
      "웰": 5385,
      "꼽히": 5386,
      "中": 5387,
      "안동": 5388,
      "윈도": 5389,
      "국경": 5390,
      "##먼지": 5391,
      "기증": 5392,
      "##고속도로": 5393,
      "떠났": 5394,
      "샘": 5395,
      "거절": 5396,
      "적립": 5397,
      "##다리": 5398,
      "공중": 5399,
      "유치원": 5400,
      "스코": 5401,
      "아라": 5402,
      "##art": 5403,
      "바둑": 5404,
      "맞대": 5405,
      "고지": 5406,
      "궤": 5407,
      "##진영": 5408,
      "해방": 5409,
      "일치": 5410,
      "영남": 5411,
      "내비": 5412,
      "진주": 5413,
      "낚": 5414,
      "올바": 5415,
      "입구": 5416,
      "사연": 5417,
      "인치": 5418,
      "스님": 5419,
      "경찰관": 5420,
      "끌어올": 5421,
      "남아": 5422,
      "최강": 5423,
      "스피드": 5424,
      "관절": 5425,
      "영하": 5426,
      "반전": 5427,
      "안타까": 5428,
      "출국": 5429,
      "백악관": 5430,
      "착공": 5431,
      "GM": 5432,
      "##정당": 5433,
      "##일랜드": 5434,
      "단말기": 5435,
      "뛰어나": 5436,
      "트렌드": 5437,
      "##어도": 5438,
      "반등": 5439,
      "거친": 5440,
      "번지": 5441,
      "위로": 5442,
      "06": 5443,
      "논술": 5444,
      "댄스": 5445,
      "패스": 5446,
      "객관": 5447,
      "교장": 5448,
      "##태프": 5449,
      "교원": 5450,
      "장성": 5451,
      "황제": 5452,
      "##어스": 5453,
      "엇갈": 5454,
      "기재": 5455,
      "나름": 5456,
      "전선": 5457,
      "뻔": 5458,
      "정통": 5459,
      "기쁘": 5460,
      "벌어졌": 5461,
      "쟁점": 5462,
      "뒷받침": 5463,
      "상향": 5464,
      "##ell": 5465,
      "떠오르": 5466,
      "소위": 5467,
      "테크": 5468,
      "##og": 5469,
      "##est": 5470,
      "포착": 5471,
      "##운서": 5472,
      "##여대": 5473,
      "보좌": 5474,
      "##처럼": 5475,
      "기획재": 5476,
      "쳤": 5477,
      "오를": 5478,
      "단원": 5479,
      "중독": 5480,
      "용지": 5481,
      "도박": 5482,
      "또다시": 5483,
      "가해": 5484,
      "텍사스": 5485,
      "여사": 5486,
      "가난": 5487,
      "뽐": 5488,
      "메인": 5489,
      "끝났": 5490,
      "회동": 5491,
      "확률": 5492,
      "항소": 5493,
      "st": 5494,
      "세종시": 5495,
      "##머리": 5496,
      "금감원": 5497,
      "##번에": 5498,
      "면제": 5499,
      "낯": 5500,
      "##통합당": 5501,
      "명성": 5502,
      "훔": 5503,
      "갚": 5504,
      "##마켓": 5505,
      "담당자": 5506,
      "되찾": 5507,
      "박성": 5508,
      "공격수": 5509,
      "##다수": 5510,
      "여겨": 5511,
      "##BA": 5512,
      "이겨": 5513,
      "##데이트": 5514,
      "태극": 5515,
      "아카데미": 5516,
      "크리스마스": 5517,
      "자칫": 5518,
      "크루": 5519,
      "양도": 5520,
      "한국은행": 5521,
      "베이스": 5522,
      "솔루션": 5523,
      "박종": 5524,
      "상대방": 5525,
      "사인": 5526,
      "##21": 5527,
      "04": 5528,
      "쓰이": 5529,
      "해수": 5530,
      "정유": 5531,
      "北": 5532,
      "119": 5533,
      "구나": 5534,
      "미국인": 5535,
      "입사": 5536,
      "토크": 5537,
      "##긴다": 5538,
      "이경": 5539,
      "이뤄질": 5540,
      "세제": 5541,
      "입국": 5542,
      "여지": 5543,
      "아나운서": 5544,
      "공방": 5545,
      "명분": 5546,
      "부근": 5547,
      "최순": 5548,
      "걸렸": 5549,
      "모금": 5550,
      "밀어": 5551,
      "태평양": 5552,
      "살려": 5553,
      "당당": 5554,
      "보강": 5555,
      "숨진": 5556,
      "미드필": 5557,
      "약물": 5558,
      "쓰러": 5559,
      "발의": 5560,
      "자아냈": 5561,
      "특집": 5562,
      "##ani": 5563,
      "남한": 5564,
      "돌아왔": 5565,
      "오토": 5566,
      "챙기": 5567,
      "##리포니아": 5568,
      "##세점": 5569,
      "유니폼": 5570,
      "##신문": 5571,
      "나요": 5572,
      "철수": 5573,
      "##NA": 5574,
      "##낸다": 5575,
      "##ov": 5576,
      "민주통합당": 5577,
      "양산": 5578,
      "고가": 5579,
      "탑승": 5580,
      "SM": 5581,
      "연상": 5582,
      "최경": 5583,
      "이집": 5584,
      "관해": 5585,
      "방치": 5586,
      "러브": 5587,
      "상식": 5588,
      "김승": 5589,
      "##뜨리": 5590,
      "처지": 5591,
      "일산": 5592,
      "1994": 5593,
      "정면": 5594,
      "막대": 5595,
      "해줄": 5596,
      "적당": 5597,
      "스티": 5598,
      "##라이트": 5599,
      "박정희": 5600,
      "기량": 5601,
      "마약": 5602,
      "서버": 5603,
      "용도": 5604,
      "옳": 5605,
      "노동부": 5606,
      "##ec": 5607,
      "패턴": 5608,
      "시나리오": 5609,
      "될지": 5610,
      "통하": 5611,
      "통장": 5612,
      "핫뉴스": 5613,
      "지부": 5614,
      "비싼": 5615,
      "##비드": 5616,
      "외면": 5617,
      "이집트": 5618,
      "업데이트": 5619,
      "말레이": 5620,
      "##ra": 5621,
      "욕심": 5622,
      "##연합회": 5623,
      "놨": 5624,
      "면역": 5625,
      "기도": 5626,
      "제이": 5627,
      "적시": 5628,
      "국세청": 5629,
      "의약품": 5630,
      "무관": 5631,
      "평범": 5632,
      "1970": 5633,
      "##로나": 5634,
      "떡": 5635,
      "조종": 5636,
      "전설": 5637,
      "내놨": 5638,
      "##아리": 5639,
      "##MC": 5640,
      "##화재": 5641,
      "자존": 5642,
      "늘려": 5643,
      "##경기": 5644,
      "안산": 5645,
      "적어도": 5646,
      "횡령": 5647,
      "사내": 5648,
      "jo": 5649,
      "칩": 5650,
      "수위": 5651,
      "##남도": 5652,
      "바뀐": 5653,
      "다저스": 5654,
      "강요": 5655,
      "전직": 5656,
      "벌인": 5657,
      "하드": 5658,
      "단축": 5659,
      "회관": 5660,
      "김주": 5661,
      "아랍": 5662,
      "결성": 5663,
      "녹화": 5664,
      "토요일": 5665,
      "동화": 5666,
      "피고": 5667,
      "캘리포니아": 5668,
      "##지검": 5669,
      "용량": 5670,
      "처방": 5671,
      "1995": 5672,
      "에이스": 5673,
      "내보": 5674,
      "못지": 5675,
      "심정": 5676,
      "탈당": 5677,
      "다룬": 5678,
      "HD": 5679,
      "구성원": 5680,
      "미안": 5681,
      "심해": 5682,
      "꼼꼼": 5683,
      "##데스": 5684,
      "아이돌": 5685,
      "사립": 5686,
      "둥": 5687,
      "##올림픽": 5688,
      "직구": 5689,
      "태어난": 5690,
      "GDP": 5691,
      "사망자": 5692,
      "선보인": 5693,
      "잭": 5694,
      "출간": 5695,
      "한은": 5696,
      "예외": 5697,
      "드린다": 5698,
      "가이드": 5699,
      "음식점": 5700,
      "##티드": 5701,
      "백억": 5702,
      "김일": 5703,
      "환경부": 5704,
      "1996": 5705,
      "도구": 5706,
      "##메일": 5707,
      "거둔": 5708,
      "음원": 5709,
      "실용": 5710,
      "겉": 5711,
      "빵": 5712,
      "다름": 5713,
      "유재": 5714,
      "불렀": 5715,
      "인천시": 5716,
      "베타뉴스": 5717,
      "붙여": 5718,
      "자민": 5719,
      "아르헨": 5720,
      "형편": 5721,
      "포트": 5722,
      "변하": 5723,
      "원자력": 5724,
      "CCTV": 5725,
      "던졌": 5726,
      "함유": 5727,
      "선거구": 5728,
      "송파": 5729,
      "문구": 5730,
      "민영": 5731,
      "유전": 5732,
      "지검": 5733,
      "꼽힌다": 5734,
      "씻": 5735,
      "##PC": 5736,
      "남해": 5737,
      "공익": 5738,
      "공백": 5739,
      "였으며": 5740,
      "진심": 5741,
      "접어": 5742,
      "진지": 5743,
      "##ie": 5744,
      "녹음": 5745,
      "##협력": 5746,
      "점심": 5747,
      "성사": 5748,
      "가끔": 5749,
      "편하": 5750,
      "사찰": 5751,
      "사흘": 5752,
      "느냐는": 5753,
      "##포트": 5754,
      "##어놓": 5755,
      "##골프": 5756,
      "오페라": 5757,
      "깎": 5758,
      "이현": 5759,
      "회의실": 5760,
      "감사원": 5761,
      "대사관": 5762,
      "전경": 5763,
      "##시오": 5764,
      "공정위": 5765,
      "짚": 5766,
      "독재": 5767,
      "골목": 5768,
      "900": 5769,
      "##부르크": 5770,
      "재직": 5771,
      "특별법": 5772,
      "한양": 5773,
      "실리": 5774,
      "##구나": 5775,
      "조회": 5776,
      "##경찰서": 5777,
      "LED": 5778,
      "메달": 5779,
      "낫": 5780,
      "면담": 5781,
      "연맹": 5782,
      "벌여": 5783,
      "##머스": 5784,
      "응시": 5785,
      "아르헨티나": 5786,
      "급속": 5787,
      "KBO": 5788,
      "블로그": 5789,
      "희생자": 5790,
      "발간": 5791,
      "그나마": 5792,
      "확실히": 5793,
      "홀로": 5794,
      "##ity": 5795,
      "##스트라": 5796,
      "기업인": 5797,
      "포토": 5798,
      "189": 5799,
      "정세": 5800,
      "캔": 5801,
      "공기업": 5802,
      "감면": 5803,
      "관할": 5804,
      "눈치": 5805,
      "##어리": 5806,
      "##법인": 5807,
      "골든": 5808,
      "소음": 5809,
      "공조": 5810,
      "고르": 5811,
      "그저": 5812,
      "초등학교": 5813,
      "거짓말": 5814,
      "##통상": 5815,
      "짙": 5816,
      "##주의자": 5817,
      "들어선": 5818,
      "탱": 5819,
      "개시": 5820,
      "할리": 5821,
      "##더스": 5822,
      "무렵": 5823,
      "제의": 5824,
      "순이익": 5825,
      "잠수": 5826,
      "무죄": 5827,
      "##공화": 5828,
      "구청장": 5829,
      "순천": 5830,
      "해진다": 5831,
      "분열": 5832,
      "##ers": 5833,
      "수확": 5834,
      "합작": 5835,
      "대다수": 5836,
      "그곳": 5837,
      "동계": 5838,
      "추산": 5839,
      "건축물": 5840,
      "어선": 5841,
      "이산": 5842,
      "광화문": 5843,
      "자면": 5844,
      "당기": 5845,
      "통행": 5846,
      "국토부": 5847,
      "김형": 5848,
      "올해": 5849,
      "수비수": 5850,
      "푼": 5851,
      "나아": 5852,
      "해경": 5853,
      "붐": 5854,
      "##one": 5855,
      "가중": 5856,
      "싼": 5857,
      "삭제": 5858,
      "단행": 5859,
      "앞세워": 5860,
      "둘러싸": 5861,
      "##NG": 5862,
      "보여준": 5863,
      "갖췄": 5864,
      "남구": 5865,
      "거점": 5866,
      "힐링": 5867,
      "랩": 5868,
      "박원": 5869,
      "어치": 5870,
      "채소": 5871,
      "계단": 5872,
      "이천": 5873,
      "관여": 5874,
      "##튜브": 5875,
      "유대": 5876,
      "답답": 5877,
      "개관": 5878,
      "청주시": 5879,
      "##ill": 5880,
      "타당": 5881,
      "나간": 5882,
      "신발": 5883,
      "본질": 5884,
      "##해야": 5885,
      "해질": 5886,
      "클리": 5887,
      "조처": 5888,
      "복지부": 5889,
      "목격": 5890,
      "코미디": 5891,
      "견제": 5892,
      "손가락": 5893,
      "DJ": 5894,
      "북미": 5895,
      "언니": 5896,
      "표면": 5897,
      "마이크로": 5898,
      "부천": 5899,
      "메일": 5900,
      "체중": 5901,
      "채권단": 5902,
      "##수원": 5903,
      "140": 5904,
      "닿": 5905,
      "##미술": 5906,
      "##널드": 5907,
      "##PGA": 5908,
      "소매": 5909,
      "수혜": 5910,
      "원료": 5911,
      "방송사": 5912,
      "이게": 5913,
      "옮기": 5914,
      "합쳐": 5915,
      "당선자": 5916,
      "엿": 5917,
      "신기": 5918,
      "관료": 5919,
      "첼": 5920,
      "##셉트": 5921,
      "홍성": 5922,
      "이듬": 5923,
      "우유": 5924,
      "##버트": 5925,
      "거든요": 5926,
      "복무": 5927,
      "차트": 5928,
      "라이브": 5929,
      "자발": 5930,
      "너무나": 5931,
      "싸이": 5932,
      "난민": 5933,
      "만족도": 5934,
      "으니까": 5935,
      "곰": 5936,
      "매니저": 5937,
      "전적": 5938,
      "탄탄": 5939,
      "오름": 5940,
      "단백": 5941,
      "공주": 5942,
      "넘어가": 5943,
      "안다": 5944,
      "상실": 5945,
      "문건": 5946,
      "##라이나": 5947,
      "##단지": 5948,
      "잖아요": 5949,
      "지원금": 5950,
      "##로지": 5951,
      "흔적": 5952,
      "신축": 5953,
      "폴란드": 5954,
      "##크스": 5955,
      "##커스": 5956,
      "등지": 5957,
      "##대전": 5958,
      "불량": 5959,
      "정무": 5960,
      "당뇨": 5961,
      "들어온": 5962,
      "보험사": 5963,
      "굳이": 5964,
      "베를": 5965,
      "고인": 5966,
      "으론": 5967,
      "##터스": 5968,
      "매월": 5969,
      "캠퍼스": 5970,
      "Ch": 5971,
      "떠난": 5972,
      "전술": 5973,
      "아리": 5974,
      "벤치": 5975,
      "검진": 5976,
      "기아차": 5977,
      "##OU": 5978,
      "##주군": 5979,
      "꽤": 5980,
      "여인": 5981,
      "방한": 5982,
      "터미널": 5983,
      "인테": 5984,
      "소집": 5985,
      "tv": 5986,
      "열기": 5987,
      "##22": 5988,
      "##래프트": 5989,
      "##up": 5990,
      "들어갈": 5991,
      "##DI": 5992,
      "관내": 5993,
      "안성": 5994,
      "##ero": 5995,
      "위대": 5996,
      "이듬해": 5997,
      "가려": 5998,
      "핸드": 5999,
      "몸매": 6000,
      "회원국": 6001,
      "한진": 6002,
      "##다보": 6003,
      "두드러": 6004,
      "나타난": 6005,
      "딜": 6006,
      "해임": 6007,
      "시킨다": 6008,
      "싸우": 6009,
      "열릴": 6010,
      "패러": 6011,
      "전교": 6012,
      "##캠프": 6013,
      "창단": 6014,
      "불황": 6015,
      "윌리": 6016,
      "여파": 6017,
      "순서": 6018,
      "마이클": 6019,
      "II": 6020,
      "무력": 6021,
      "별다른": 6022,
      "미세먼지": 6023,
      "말레이시아": 6024,
      "리라": 6025,
      "로드": 6026,
      "굿": 6027,
      "숭": 6028,
      "꺼내": 6029,
      "##ip": 6030,
      "선행": 6031,
      "협동": 6032,
      "당황": 6033,
      "횟": 6034,
      "시카": 6035,
      "##리케이션": 6036,
      "명시": 6037,
      "내역": 6038,
      "##공화국": 6039,
      "협박": 6040,
      "##과학기술": 6041,
      "위해선": 6042,
      "놓치": 6043,
      "포르투": 6044,
      "면허": 6045,
      "당선인": 6046,
      "인디": 6047,
      "대하": 6048,
      "##한국당": 6049,
      "아스": 6050,
      "패널": 6051,
      "즐겨": 6052,
      "별세": 6053,
      "응답자": 6054,
      "교정": 6055,
      "재활": 6056,
      "상공": 6057,
      "사격": 6058,
      "김선": 6059,
      "LTE": 6060,
      "스튜디오": 6061,
      "민심": 6062,
      "선착": 6063,
      "끊임없이": 6064,
      "##관위": 6065,
      "##니스트": 6066,
      "비하": 6067,
      "원작": 6068,
      "##조합": 6069,
      "##랑이": 6070,
      "이마트": 6071,
      "램": 6072,
      "국적": 6073,
      "고리": 6074,
      "##본다": 6075,
      "분산": 6076,
      "겨우": 6077,
      "생계": 6078,
      "상정": 6079,
      "생생": 6080,
      "박태": 6081,
      "중시": 6082,
      "이윤": 6083,
      "올바른": 6084,
      "멋진": 6085,
      "법무": 6086,
      "플랜": 6087,
      "##줘야": 6088,
      "이화": 6089,
      "고서": 6090,
      "지니": 6091,
      "##ER": 6092,
      "##축구연맹": 6093,
      "통치": 6094,
      "##ry": 6095,
      "유용": 6096,
      "하원": 6097,
      "박준": 6098,
      "다문화": 6099,
      "커졌": 6100,
      "멘토": 6101,
      "복용": 6102,
      "##ee": 6103,
      "뭘": 6104,
      "트로": 6105,
      "개교": 6106,
      "상주": 6107,
      "##거래소": 6108,
      "충주": 6109,
      "폭로": 6110,
      "흔들리": 6111,
      "그랜드": 6112,
      "검거": 6113,
      "평론": 6114,
      "##포구": 6115,
      "쇠고기": 6116,
      "##사업": 6117,
      "##둥이": 6118,
      "동포": 6119,
      "태어나": 6120,
      "병역": 6121,
      "슈팅": 6122,
      "양호": 6123,
      "마사": 6124,
      "유가족": 6125,
      "페이지": 6126,
      "진도": 6127,
      "南": 6128,
      "체납": 6129,
      "등산": 6130,
      "MV": 6131,
      "##news": 6132,
      "버디": 6133,
      "##if": 6134,
      "플레이어": 6135,
      "시티": 6136,
      "최순실": 6137,
      "##PS": 6138,
      "참모": 6139,
      "수송": 6140,
      "만성": 6141,
      "북핵": 6142,
      "##릭스": 6143,
      "정선": 6144,
      "존경": 6145,
      "입력": 6146,
      "정국": 6147,
      "부드러": 6148,
      "한우": 6149,
      "걸린": 6150,
      "치유": 6151,
      "끈다": 6152,
      "매물": 6153,
      "변호인": 6154,
      "종종": 6155,
      "영토": 6156,
      "원고": 6157,
      "구름": 6158,
      "좀더": 6159,
      "##풀이": 6160,
      "표기": 6161,
      "외치": 6162,
      "농어": 6163,
      "부스": 6164,
      "영원": 6165,
      "색상": 6166,
      "##잡이": 6167,
      "김연아": 6168,
      "일어났": 6169,
      "동서": 6170,
      "따져": 6171,
      "지불": 6172,
      "따지": 6173,
      "##디움": 6174,
      "입건": 6175,
      "우편": 6176,
      "모범": 6177,
      "특강": 6178,
      "명목": 6179,
      "오버": 6180,
      "양보": 6181,
      "무더": 6182,
      "도모": 6183,
      "외국어": 6184,
      "챙겨": 6185,
      "이어질": 6186,
      "납치": 6187,
      "금연": 6188,
      "삽": 6189,
      "어쩌": 6190,
      "##디스": 6191,
      "시카고": 6192,
      "단체장": 6193,
      "묘사": 6194,
      "행태": 6195,
      "##lee": 6196,
      "콤": 6197,
      "기울이": 6198,
      "기술력": 6199,
      "레스토": 6200,
      "하천": 6201,
      "##하나": 6202,
      "##톨릭": 6203,
      "제조업체": 6204,
      "펼쳐진다": 6205,
      "프라": 6206,
      "천재": 6207,
      "이인": 6208,
      "레벨": 6209,
      "저하": 6210,
      "##체육관": 6211,
      "알아보": 6212,
      "얼음": 6213,
      "모드": 6214,
      "알렸": 6215,
      "이젠": 6216,
      "사냥": 6217,
      "##키퍼": 6218,
      "레스토랑": 6219,
      "딴": 6220,
      "인명": 6221,
      "##아트": 6222,
      "퇴진": 6223,
      "셋째": 6224,
      "게시판": 6225,
      "부친": 6226,
      "리드": 6227,
      "##kim": 6228,
      "학문": 6229,
      "농도": 6230,
      "유로존": 6231,
      "조율": 6232,
      "전산": 6233,
      "준수": 6234,
      "올릴": 6235,
      "정황": 6236,
      "발탁": 6237,
      "육상": 6238,
      "루수": 6239,
      "사물": 6240,
      "이식": 6241,
      "세이브": 6242,
      "업그": 6243,
      "수분": 6244,
      "스페셜": 6245,
      "##ly": 6246,
      "야생": 6247,
      "한꺼": 6248,
      "그걸": 6249,
      "열애": 6250,
      "최상": 6251,
      "메모리": 6252,
      "톡": 6253,
      "원가": 6254,
      "어우": 6255,
      "로맨": 6256,
      "올스타": 6257,
      "튼": 6258,
      "여신": 6259,
      "금융감독": 6260,
      "태블": 6261,
      "별명": 6262,
      "언제나": 6263,
      "문장": 6264,
      "만든다": 6265,
      "플러스": 6266,
      "믿음": 6267,
      "병력": 6268,
      "닦": 6269,
      "의하": 6270,
      "문명": 6271,
      "특혜": 6272,
      "연일": 6273,
      "도달": 6274,
      "리얼": 6275,
      "##90": 6276,
      "kj": 6277,
      "주사": 6278,
      "비서실장": 6279,
      "줄일": 6280,
      "무난": 6281,
      "160": 6282,
      "##버리": 6283,
      "혹시": 6284,
      "##두리": 6285,
      "골라": 6286,
      "행운": 6287,
      "##들여": 6288,
      "영등": 6289,
      "피아노": 6290,
      "##서비스": 6291,
      "da": 6292,
      "##후군": 6293,
      "침몰": 6294,
      "골키퍼": 6295,
      "##스레": 6296,
      "단백질": 6297,
      "북구": 6298,
      "업그레이드": 6299,
      "##셀로나": 6300,
      "##먼스": 6301,
      "비만": 6302,
      "과잉": 6303,
      "육아": 6304,
      "무서": 6305,
      "##25": 6306,
      "CP": 6307,
      "청원": 6308,
      "김무성": 6309,
      "꼬리": 6310,
      "한꺼번에": 6311,
      "##타르": 6312,
      "제치": 6313,
      "즐거운": 6314,
      "테이블": 6315,
      "is": 6316,
      "불안감": 6317,
      "시비": 6318,
      "플라": 6319,
      "하이닉스": 6320,
      "국민은행": 6321,
      "주유": 6322,
      "합계": 6323,
      "프로듀": 6324,
      "Z": 6325,
      "##진흥원": 6326,
      "이어진": 6327,
      "이창": 6328,
      "진전": 6329,
      "봐도": 6330,
      "스트라이": 6331,
      "피의자": 6332,
      "자존심": 6333,
      "린": 6334,
      "창고": 6335,
      "##물산": 6336,
      "치매": 6337,
      "어쩔": 6338,
      "할리우드": 6339,
      "루타": 6340,
      "비결": 6341,
      "##어진": 6342,
      "절실": 6343,
      "mt": 6344,
      "중소기업": 6345,
      "##덩이": 6346,
      "파격": 6347,
      "선포": 6348,
      "##스타인": 6349,
      "자격증": 6350,
      "옵션": 6351,
      "BM": 6352,
      "월급": 6353,
      "조현": 6354,
      "이뤘": 6355,
      "맞춘": 6356,
      "해피": 6357,
      "##ook": 6358,
      "신사": 6359,
      "간편": 6360,
      "공업": 6361,
      "동결": 6362,
      "해지": 6363,
      "눌": 6364,
      "어르": 6365,
      "고조": 6366,
      "2500": 6367,
      "등록금": 6368,
      "프리미어": 6369,
      "##TX": 6370,
      "원화": 6371,
      "낸다": 6372,
      "터치": 6373,
      "1200": 6374,
      "탁월": 6375,
      "동성": 6376,
      "세련": 6377,
      "고스": 6378,
      "하향": 6379,
      "고무": 6380,
      "##등록": 6381,
      "상속": 6382,
      "사령관": 6383,
      "자유한국당": 6384,
      "깔끔": 6385,
      "##라리": 6386,
      "08": 6387,
      "점령": 6388,
      "이준": 6389,
      "실전": 6390,
      "높일": 6391,
      "바깥": 6392,
      "##데이터": 6393,
      "경관": 6394,
      "인접": 6395,
      "바르셀로나": 6396,
      "대개": 6397,
      "감추": 6398,
      "확립": 6399,
      "업소": 6400,
      "호조": 6401,
      "비싸": 6402,
      "공작": 6403,
      "남양": 6404,
      "서식": 6405,
      "인테리어": 6406,
      "가르치": 6407,
      "아닙": 6408,
      "시속": 6409,
      "다큐": 6410,
      "재계": 6411,
      "고장": 6412,
      "위장": 6413,
      "##다란": 6414,
      "헬기": 6415,
      "##디자": 6416,
      "일으킨": 6417,
      "타이어": 6418,
      "1987": 6419,
      "조속": 6420,
      "부착": 6421,
      "##모델": 6422,
      "종사자": 6423,
      "청탁": 6424,
      "섹시": 6425,
      "브라운": 6426,
      "소득세": 6427,
      "일제히": 6428,
      "오빠": 6429,
      "살아남": 6430,
      "했으며": 6431,
      "상급": 6432,
      "##ds": 6433,
      "경보": 6434,
      "증자": 6435,
      "경영진": 6436,
      "시달리": 6437,
      "##ist": 6438,
      "포수": 6439,
      "국비": 6440,
      "병사": 6441,
      "킹": 6442,
      "##ust": 6443,
      "발주": 6444,
      "부딪": 6445,
      "중화": 6446,
      "미드필더": 6447,
      "편의점": 6448,
      "앞장서": 6449,
      "↑": 6450,
      "마라톤": 6451,
      "파문": 6452,
      "프랜": 6453,
      "인형": 6454,
      "레인": 6455,
      "곤란": 6456,
      "CNN": 6457,
      "강호": 6458,
      "넘어섰": 6459,
      "가벼운": 6460,
      "감자": 6461,
      "끓": 6462,
      "##DA": 6463,
      "활력": 6464,
      "우정": 6465,
      "당해": 6466,
      "중립": 6467,
      "동북아": 6468,
      "크림": 6469,
      "##ung": 6470,
      "체인": 6471,
      "##LS": 6472,
      "전격": 6473,
      "101": 6474,
      "환상": 6475,
      "##업소": 6476,
      "공판": 6477,
      "무인": 6478,
      "프라이": 6479,
      "마켓": 6480,
      "할아버지": 6481,
      "광복": 6482,
      "삭감": 6483,
      "실습": 6484,
      "국어": 6485,
      "과학자": 6486,
      "델": 6487,
      "자이": 6488,
      "인체": 6489,
      "노르": 6490,
      "타협": 6491,
      "가맹점": 6492,
      "남긴": 6493,
      "원천": 6494,
      "일선": 6495,
      "시너지": 6496,
      "식량": 6497,
      "##비디오": 6498,
      "즐겁": 6499,
      "지혜": 6500,
      "윌리엄": 6501,
      "만달러": 6502,
      "##지니어": 6503,
      "##hy": 6504,
      "##리즘": 6505,
      "한전": 6506,
      "헤드": 6507,
      "박재": 6508,
      "맘": 6509,
      "넘어서": 6510,
      "울산시": 6511,
      "고마": 6512,
      "촌": 6513,
      "김장": 6514,
      "포르투갈": 6515,
      "마땅": 6516,
      "합성": 6517,
      "차림": 6518,
      "##IC": 6519,
      "##외선": 6520,
      "큐": 6521,
      "타운": 6522,
      "열풍": 6523,
      "##비치": 6524,
      "오사": 6525,
      "유인": 6526,
      "탈퇴": 6527,
      "현대중공업": 6528,
      "어우러": 6529,
      "렀": 6530,
      "tvN": 6531,
      "이례": 6532,
      "동아리": 6533,
      "가짜": 6534,
      "텔레비전": 6535,
      "후쿠": 6536,
      "##관광부": 6537,
      "##저우": 6538,
      "불참": 6539,
      "그건": 6540,
      "명백": 6541,
      "쇄신": 6542,
      "메가": 6543,
      "호수": 6544,
      "##과장": 6545,
      "항공사": 6546,
      "##매매": 6547,
      "호르": 6548,
      "유럽연합": 6549,
      "백신": 6550,
      "예보": 6551,
      "##CD": 6552,
      "월세": 6553,
      "출생": 6554,
      "불펜": 6555,
      "무척": 6556,
      "생애": 6557,
      "참석자": 6558,
      "죄송": 6559,
      "킬": 6560,
      "鄭": 6561,
      "빈곤": 6562,
      "오일": 6563,
      "##와이": 6564,
      "소니": 6565,
      "통일부": 6566,
      "기용": 6567,
      "우크": 6568,
      "베를린": 6569,
      "잎": 6570,
      "##기에": 6571,
      "거세": 6572,
      "데려": 6573,
      "안타깝": 6574,
      "##파원": 6575,
      "유의": 6576,
      "자매": 6577,
      "속하": 6578,
      "채워": 6579,
      "제어": 6580,
      "팔레": 6581,
      "꾸며": 6582,
      "레이스": 6583,
      "스타트": 6584,
      "##TO": 6585,
      "썰": 6586,
      "이대호": 6587,
      "경북도": 6588,
      "갑작": 6589,
      "크로스": 6590,
      "해준": 6591,
      "베르": 6592,
      "비트": 6593,
      "##지션": 6594,
      "어려웠": 6595,
      "구멍": 6596,
      "유감": 6597,
      "살아가": 6598,
      "성장세": 6599,
      "내릴": 6600,
      "의정": 6601,
      "푸른": 6602,
      "##선수권": 6603,
      "뛰어넘": 6604,
      "대박": 6605,
      "두루": 6606,
      "美": 6607,
      "조류": 6608,
      "전방": 6609,
      "생일": 6610,
      "보편": 6611,
      "빨간": 6612,
      "재현": 6613,
      "절약": 6614,
      "급격히": 6615,
      "##엑스": 6616,
      "경호": 6617,
      "임용": 6618,
      "라이프": 6619,
      "선거법": 6620,
      "##보호": 6621,
      "##투스": 6622,
      "치솟": 6623,
      "오프라인": 6624,
      "MVP": 6625,
      "피고인": 6626,
      "어떠한": 6627,
      "##팀장": 6628,
      "##드리드": 6629,
      "박세": 6630,
      "즐거움": 6631,
      "재발": 6632,
      "취재진": 6633,
      "교도": 6634,
      "향하": 6635,
      "아닐까": 6636,
      "MB": 6637,
      "##por": 6638,
      "도청": 6639,
      "그라운드": 6640,
      "##널리스트": 6641,
      "제자": 6642,
      "선보일": 6643,
      "해법": 6644,
      "##사관": 6645,
      "굵": 6646,
      "대피": 6647,
      "약화": 6648,
      "아산": 6649,
      "Ne": 6650,
      "##퍼런스": 6651,
      "청춘": 6652,
      "침묵": 6653,
      "카이": 6654,
      "단식": 6655,
      "##리안": 6656,
      "고구": 6657,
      "다를": 6658,
      "화해": 6659,
      "출제": 6660,
      "뛰어들": 6661,
      "우세": 6662,
      "안건": 6663,
      "해볼": 6664,
      "책정": 6665,
      "권유": 6666,
      "들어왔": 6667,
      "소금": 6668,
      "기숙": 6669,
      "머물렀": 6670,
      "횟수": 6671,
      "노트북": 6672,
      "하수": 6673,
      "텐데": 6674,
      "알파": 6675,
      "시드": 6676,
      "아시안게임": 6677,
      "어르신": 6678,
      "걸친": 6679,
      "밀리": 6680,
      "kt": 6681,
      "창당": 6682,
      "드레스": 6683,
      "공모전": 6684,
      "고성": 6685,
      "염두": 6686,
      "접한": 6687,
      "고집": 6688,
      "부도": 6689,
      "신성": 6690,
      "챔피언스": 6691,
      "##차이즈": 6692,
      "화폐": 6693,
      "##대교": 6694,
      "##신수": 6695,
      "성숙": 6696,
      "현대자동차": 6697,
      "조약": 6698,
      "자책": 6699,
      "체류": 6700,
      "다해": 6701,
      "신한은행": 6702,
      "1988": 6703,
      "##딩크": 6704,
      "태어났": 6705,
      "응모": 6706,
      "공연장": 6707,
      "##케어": 6708,
      "파주": 6709,
      "##트롤": 6710,
      "아일랜드": 6711,
      "원조": 6712,
      "청렴": 6713,
      "억울": 6714,
      "발령": 6715,
      "##oun": 6716,
      "학업": 6717,
      "한가": 6718,
      "메이크": 6719,
      "미술관": 6720,
      "##흥민": 6721,
      "##보건": 6722,
      "지켰": 6723,
      "승강": 6724,
      "##운트": 6725,
      "조인": 6726,
      "아픔": 6727,
      "日": 6728,
      "접종": 6729,
      "정전": 6730,
      "전수": 6731,
      "벨기에": 6732,
      "베네": 6733,
      "구원": 6734,
      "##둘러": 6735,
      "##sh": 6736,
      "연기자": 6737,
      "자부": 6738,
      "사운드": 6739,
      "얽": 6740,
      "재고": 6741,
      "터지": 6742,
      "##ue": 6743,
      "흘리": 6744,
      "내게": 6745,
      "구청": 6746,
      "유적": 6747,
      "비대": 6748,
      "질의": 6749,
      "옛날": 6750,
      "발레": 6751,
      "굽": 6752,
      "섰": 6753,
      "낙찰": 6754,
      "EC": 6755,
      "피안타": 6756,
      "1992": 6757,
      "##컨대": 6758,
      "제임스": 6759,
      "태백": 6760,
      "##네스": 6761,
      "식민": 6762,
      "공화국": 6763,
      "타결": 6764,
      "뮤직비디오": 6765,
      "손흥민": 6766,
      "던져": 6767,
      "##테일": 6768,
      "교차": 6769,
      "기한": 6770,
      "전사": 6771,
      "박주영": 6772,
      "권역": 6773,
      "상의": 6774,
      "##순환": 6775,
      "만일": 6776,
      "##od": 6777,
      "수산": 6778,
      "##위원장": 6779,
      "흑인": 6780,
      "##정책": 6781,
      "##주얼": 6782,
      "##극장": 6783,
      "山": 6784,
      "동쪽": 6785,
      "청정": 6786,
      "원금": 6787,
      "득표": 6788,
      "##승환": 6789,
      "대치": 6790,
      "마드리드": 6791,
      "##연대": 6792,
      "안방": 6793,
      "정한": 6794,
      "시설물": 6795,
      "꼬집": 6796,
      "한해": 6797,
      "때려": 6798,
      "정동": 6799,
      "중지": 6800,
      "수질": 6801,
      "잠정": 6802,
      "1960": 6803,
      "농성": 6804,
      "농사": 6805,
      "놈": 6806,
      "SU": 6807,
      "창구": 6808,
      "캐스팅": 6809,
      "배구": 6810,
      "아이스": 6811,
      "분량": 6812,
      "##바이트": 6813,
      "제보": 6814,
      "터널": 6815,
      "힙": 6816,
      "경남도": 6817,
      "##몬드": 6818,
      "문화체육": 6819,
      "상권": 6820,
      "히딩크": 6821,
      "방역": 6822,
      "##TS": 6823,
      "주역": 6824,
      "하고": 6825,
      "낭비": 6826,
      "고추": 6827,
      "의정부": 6828,
      "추신수": 6829,
      "금융감독원": 6830,
      "다채": 6831,
      "범인": 6832,
      "간사": 6833,
      "##포먼스": 6834,
      "어두": 6835,
      "악재": 6836,
      "릴": 6837,
      "여섯": 6838,
      "전송": 6839,
      "헌재": 6840,
      "이원": 6841,
      "산정": 6842,
      "정몽": 6843,
      "일가": 6844,
      "노벨": 6845,
      "몽골": 6846,
      "내세우": 6847,
      "트레이드": 6848,
      "양자": 6849,
      "혈관": 6850,
      "##티스트": 6851,
      "부러": 6852,
      "장려": 6853,
      "##도서관": 6854,
      "감지": 6855,
      "보복": 6856,
      "마비": 6857,
      "갱": 6858,
      "소홀": 6859,
      "험": 6860,
      "##소연": 6861,
      "지지자": 6862,
      "흙": 6863,
      "안드로": 6864,
      "서쪽": 6865,
      "센트": 6866,
      "고양이": 6867,
      "물결": 6868,
      "수신": 6869,
      "##바닥": 6870,
      "배럴": 6871,
      "전라": 6872,
      "당국자": 6873,
      "검정": 6874,
      "가톨릭": 6875,
      "폰": 6876,
      "마스터": 6877,
      "특별히": 6878,
      "바닷": 6879,
      "협업": 6880,
      "어찌": 6881,
      "##소년": 6882,
      "탤": 6883,
      "해킹": 6884,
      "주방": 6885,
      "데이비드": 6886,
      "포도": 6887,
      "안경": 6888,
      "중재": 6889,
      "아사": 6890,
      "호평": 6891,
      "여전": 6892,
      "##티아": 6893,
      "크로": 6894,
      "쿠바": 6895,
      "페르": 6896,
      "분담": 6897,
      "깃": 6898,
      "전철": 6899,
      "브로": 6900,
      "들어와": 6901,
      "동행": 6902,
      "결단": 6903,
      "김일성": 6904,
      "분포": 6905,
      "종로구": 6906,
      "##징금": 6907,
      "공영": 6908,
      "OS": 6909,
      "사각": 6910,
      "페이": 6911,
      "##소장": 6912,
      "기각": 6913,
      "보낼": 6914,
      "추경": 6915,
      "채우": 6916,
      "물러나": 6917,
      "뜨겁": 6918,
      "좌절": 6919,
      "##배우": 6920,
      "조별": 6921,
      "순매도": 6922,
      "전신": 6923,
      "맨유": 6924,
      "동아시아": 6925,
      "ky": 6926,
      "살짝": 6927,
      "##기념": 6928,
      "##클럽": 6929,
      "〓": 6930,
      "실효": 6931,
      "키스": 6932,
      "대세": 6933,
      "매진": 6934,
      "바꿨": 6935,
      "웬": 6936,
      "##우리당": 6937,
      "1993": 6938,
      "이메일": 6939,
      "대조": 6940,
      "유료": 6941,
      "내걸": 6942,
      "그릇": 6943,
      "자진": 6944,
      "사라졌": 6945,
      "유튜브": 6946,
      "국감": 6947,
      "커다란": 6948,
      "경희": 6949,
      "##IP": 6950,
      "예수": 6951,
      "산소": 6952,
      "외곽": 6953,
      "##딩스": 6954,
      "##셔츠": 6955,
      "감기": 6956,
      "자꾸": 6957,
      "합격자": 6958,
      "치른": 6959,
      "화가": 6960,
      "건설사": 6961,
      "해줬": 6962,
      "sh": 6963,
      "열린우리당": 6964,
      "07": 6965,
      "뜬": 6966,
      "롱": 6967,
      "최고치": 6968,
      "군민": 6969,
      "전남도": 6970,
      "퓨": 6971,
      "봉사자": 6972,
      "##시간": 6973,
      "버튼": 6974,
      "be": 6975,
      "##서치": 6976,
      "회사채": 6977,
      "09": 6978,
      "면세점": 6979,
      "영리": 6980,
      "상한가": 6981,
      "대표단": 6982,
      "민주노총": 6983,
      "생성": 6984,
      "##ate": 6985,
      "라이벌": 6986,
      "생산량": 6987,
      "샷": 6988,
      "미흡": 6989,
      "##소시": 6990,
      "전임": 6991,
      "퍼포먼스": 6992,
      "구리": 6993,
      "석방": 6994,
      "엔화": 6995,
      "구사": 6996,
      "탐사": 6997,
      "떨어진다": 6998,
      "공산당": 6999,
      "##세이": 7000,
      "탕": 7001,
      "출판사": 7002,
      "모스크": 7003,
      "수원시": 7004,
      "숙소": 7005,
      "hani": 7006,
      "평론가": 7007,
      "상세": 7008,
      "체감": 7009,
      "될까": 7010,
      "내년도": 7011,
      "##언스": 7012,
      "불신": 7013,
      "김준": 7014,
      "내장": 7015,
      "선착순": 7016,
      "내려가": 7017,
      "수명": 7018,
      "##재판": 7019,
      "이목": 7020,
      "관장": 7021,
      "##래곤": 7022,
      "꾀": 7023,
      "삼성물산": 7024,
      "동남아": 7025,
      "나뉘": 7026,
      "무효": 7027,
      "CF": 7028,
      "##AS": 7029,
      "탤런트": 7030,
      "과태": 7031,
      "이뤄진다": 7032,
      "검출": 7033,
      "감수": 7034,
      "108": 7035,
      "##케스트라": 7036,
      "##질랜드": 7037,
      "갈라": 7038,
      "오늘날": 7039,
      "오디션": 7040,
      "MOU": 7041,
      "연도": 7042,
      "##ob": 7043,
      "폐기물": 7044,
      "유나이": 7045,
      "부른다": 7046,
      "과태료": 7047,
      "스카이": 7048,
      "구두": 7049,
      "보스턴": 7050,
      "모래": 7051,
      "모인": 7052,
      "다우": 7053,
      "회생": 7054,
      "##체스터": 7055,
      "국악": 7056,
      "증가세": 7057,
      "죽이": 7058,
      "마침내": 7059,
      "나쁘": 7060,
      "이순": 7061,
      "모터": 7062,
      "의자": 7063,
      "##식품부": 7064,
      "##문학": 7065,
      "인플": 7066,
      "토로": 7067,
      "##ae": 7068,
      "단점": 7069,
      "레저": 7070,
      "##35": 7071,
      "상용": 7072,
      "민정": 7073,
      "on": 7074,
      "구석": 7075,
      "##ld": 7076,
      "산책": 7077,
      "반해": 7078,
      "國": 7079,
      "스윙": 7080,
      "실명": 7081,
      "히로": 7082,
      "톰": 7083,
      "켜": 7084,
      "추출": 7085,
      "우크라이나": 7086,
      "파크": 7087,
      "도와주": 7088,
      "축산": 7089,
      "확고": 7090,
      "이견": 7091,
      "##처장": 7092,
      "갤러리": 7093,
      "##란시스": 7094,
      "출력": 7095,
      "##화학": 7096,
      "##평가": 7097,
      "투신": 7098,
      "접목": 7099,
      "●": 7100,
      "##EA": 7101,
      "프랜차이즈": 7102,
      "관광지": 7103,
      "드물": 7104,
      "송도": 7105,
      "박병": 7106,
      "동대문": 7107,
      "##수지": 7108,
      "복제": 7109,
      "광명": 7110,
      "부재": 7111,
      "##푸드": 7112,
      "##텍스": 7113,
      "리스트": 7114,
      "결산": 7115,
      "주름": 7116,
      "메이크업": 7117,
      "다행히": 7118,
      "집중력": 7119,
      "LH": 7120,
      "부추": 7121,
      "파장": 7122,
      "파라": 7123,
      "상자": 7124,
      "뉴질랜드": 7125,
      "붙이": 7126,
      "접하": 7127,
      "##14": 7128,
      "이를": 7129,
      "소주": 7130,
      "##지주": 7131,
      "캄": 7132,
      "##욕장": 7133,
      "셰프": 7134,
      "작곡가": 7135,
      "냐고": 7136,
      "학계": 7137,
      "징수": 7138,
      "102": 7139,
      "박용": 7140,
      "의욕": 7141,
      "표창": 7142,
      "역설": 7143,
      "맞대결": 7144,
      "비자금": 7145,
      "가하": 7146,
      "스토": 7147,
      "##해양": 7148,
      "##our": 7149,
      "상해": 7150,
      "리조트": 7151,
      "오락": 7152,
      "신청서": 7153,
      "조짐": 7154,
      "모의": 7155,
      "|": 7156,
      "강해": 7157,
      "트럭": 7158,
      "##메이": 7159,
      "멈추": 7160,
      "발라": 7161,
      "##멘트": 7162,
      "자영": 7163,
      "유관": 7164,
      "##OR": 7165,
      "일으켰": 7166,
      "인텔": 7167,
      "앞당": 7168,
      "법조": 7169,
      "##르기": 7170,
      "도널드": 7171,
      "주고": 7172,
      "극심": 7173,
      "액수": 7174,
      "산학": 7175,
      "호기": 7176,
      "##트라": 7177,
      "쾌적": 7178,
      "유물": 7179,
      "뷰티": 7180,
      "탔": 7181,
      "고스란히": 7182,
      "친화": 7183,
      "인천공항": 7184,
      "져야": 7185,
      "UN": 7186,
      "##요타": 7187,
      "상사": 7188,
      "제압": 7189,
      "화보": 7190,
      "대여": 7191,
      "다가오": 7192,
      "좌석": 7193,
      "숨졌": 7194,
      "컴백": 7195,
      "떠올랐": 7196,
      "##패드": 7197,
      "장인": 7198,
      "외환은행": 7199,
      "경품": 7200,
      "더군": 7201,
      "인종": 7202,
      "##포토": 7203,
      "각별": 7204,
      "긴밀": 7205,
      "##aid": 7206,
      "개그맨": 7207,
      "이석": 7208,
      "반기": 7209,
      "펀": 7210,
      "삼성생명": 7211,
      "이어진다": 7212,
      "표지": 7213,
      "##의당": 7214,
      "밀양": 7215,
      "三": 7216,
      "타구": 7217,
      "박원순": 7218,
      "민중": 7219,
      "##가리": 7220,
      "바꾼": 7221,
      "미용": 7222,
      "용의자": 7223,
      "외신": 7224,
      "세율": 7225,
      "##공동": 7226,
      "소스": 7227,
      "##어넣": 7228,
      "총력": 7229,
      "뒀": 7230,
      "숨지": 7231,
      "탐방": 7232,
      "정진": 7233,
      "태권": 7234,
      "명동": 7235,
      "바꿀": 7236,
      "대검": 7237,
      "반환": 7238,
      "끌려": 7239,
      "낚시": 7240,
      "헬스": 7241,
      "무단": 7242,
      "나눴": 7243,
      "기적": 7244,
      "발인": 7245,
      "성폭행": 7246,
      "익산": 7247,
      "산불": 7248,
      "##are": 7249,
      "자택": 7250,
      "포지션": 7251,
      "##TI": 7252,
      "의외": 7253,
      "##겨진": 7254,
      "날개": 7255,
      "관심사": 7256,
      "##슬러": 7257,
      "경신": 7258,
      "170": 7259,
      "강진": 7260,
      "여주": 7261,
      "경제부": 7262,
      "통신사": 7263,
      "시행령": 7264,
      "애국": 7265,
      "민속": 7266,
      "##ure": 7267,
      "표결": 7268,
      "먹이": 7269,
      "교역": 7270,
      "##베르": 7271,
      "친절": 7272,
      "##유럽": 7273,
      "KA": 7274,
      "입점": 7275,
      "더라고": 7276,
      "신혼": 7277,
      "호르몬": 7278,
      "광산": 7279,
      "우수상": 7280,
      "서정": 7281,
      "기운": 7282,
      "##학부": 7283,
      "넘겼": 7284,
      "##초등학교": 7285,
      "고맙": 7286,
      "후기": 7287,
      "헐": 7288,
      "##이상": 7289,
      "갈아": 7290,
      "중산": 7291,
      "##저히": 7292,
      "LCD": 7293,
      "떨어질": 7294,
      "그러자": 7295,
      "더구나": 7296,
      "삼성화재": 7297,
      "##가운": 7298,
      "아픈": 7299,
      "국고": 7300,
      "강렬": 7301,
      "탈북": 7302,
      "창업자": 7303,
      "얇": 7304,
      "스러워": 7305,
      "조국": 7306,
      "##모션": 7307,
      "연루": 7308,
      "연준": 7309,
      "보행": 7310,
      "선관위": 7311,
      "당사": 7312,
      "민간인": 7313,
      "##믹스": 7314,
      "직면": 7315,
      "언론사": 7316,
      "최정": 7317,
      "韓": 7318,
      "탐구": 7319,
      "붓": 7320,
      "달라지": 7321,
      "##성기": 7322,
      "호재": 7323,
      "오름세": 7324,
      "부리": 7325,
      "##타임": 7326,
      "크루즈": 7327,
      "전문의": 7328,
      "토끼": 7329,
      "파산": 7330,
      "1991": 7331,
      "돼서": 7332,
      "##밴드": 7333,
      "OEC": 7334,
      "文": 7335,
      "진압": 7336,
      "행사장": 7337,
      "펠": 7338,
      "펼칠": 7339,
      "주고받": 7340,
      "##교통": 7341,
      "안드로이드": 7342,
      "사면": 7343,
      "##버드": 7344,
      "KCC": 7345,
      "유독": 7346,
      "서귀": 7347,
      "비극": 7348,
      "세일": 7349,
      "##경찰청": 7350,
      "##레이크": 7351,
      "평가전": 7352,
      "OECD": 7353,
      "립": 7354,
      "예요": 7355,
      "거품": 7356,
      "인건": 7357,
      "장동": 7358,
      "##시다": 7359,
      "들어간다": 7360,
      "출처": 7361,
      "펼친다": 7362,
      "진정한": 7363,
      "소원": 7364,
      "팽팽": 7365,
      "사형": 7366,
      "##자원부": 7367,
      "##국민": 7368,
      "##통위": 7369,
      "2019": 7370,
      "바른정당": 7371,
      "위조": 7372,
      "##ant": 7373,
      "지붕": 7374,
      "중기": 7375,
      "해산": 7376,
      "본래": 7377,
      "우호": 7378,
      "때로": 7379,
      "he": 7380,
      "실감": 7381,
      "지경": 7382,
      "닛": 7383,
      "##두르": 7384,
      "맞붙": 7385,
      "##나들": 7386,
      "##ith": 7387,
      "신형": 7388,
      "갓": 7389,
      "##일으": 7390,
      "인쇄": 7391,
      "bet": 7392,
      "약자": 7393,
      "빅데이터": 7394,
      "애널리스트": 7395,
      "케이스": 7396,
      "요양": 7397,
      "낡": 7398,
      "헛": 7399,
      "예컨대": 7400,
      "지상파": 7401,
      "홍준": 7402,
      "감찰": 7403,
      "전투기": 7404,
      "치안": 7405,
      "어떨": 7406,
      "배우자": 7407,
      "줘야": 7408,
      "임대료": 7409,
      "선수권": 7410,
      "신탁": 7411,
      "추측": 7412,
      "이노": 7413,
      "성매매": 7414,
      "비치": 7415,
      "퇴출": 7416,
      "350": 7417,
      "내륙": 7418,
      "볼거리": 7419,
      "재즈": 7420,
      "유혹": 7421,
      "이은": 7422,
      "ET": 7423,
      "##란시스코": 7424,
      "보험금": 7425,
      "사직": 7426,
      "수거": 7427,
      "리바": 7428,
      "으라": 7429,
      "##31": 7430,
      "미뤄": 7431,
      "연내": 7432,
      "포괄": 7433,
      "날짜": 7434,
      "헝": 7435,
      "충북도": 7436,
      "몰라": 7437,
      "강당": 7438,
      "솜": 7439,
      "맡기": 7440,
      "##이슈": 7441,
      "미친": 7442,
      "휠": 7443,
      "사채": 7444,
      "安": 7445,
      "서초구": 7446,
      "근절": 7447,
      "접전": 7448,
      "##캐피탈": 7449,
      "##단장": 7450,
      "명소": 7451,
      "입상": 7452,
      "일명": 7453,
      "버티": 7454,
      "스파": 7455,
      "더욱이": 7456,
      "파운드": 7457,
      "금요일": 7458,
      "기압": 7459,
      "빨라": 7460,
      "재학": 7461,
      "##수석": 7462,
      "욕구": 7463,
      "현대건설": 7464,
      "덴마크": 7465,
      "온갖": 7466,
      "##인터": 7467,
      "써야": 7468,
      "전시장": 7469,
      "달랐": 7470,
      "타입": 7471,
      "탱크": 7472,
      "공로": 7473,
      "##추어": 7474,
      "##네트워크": 7475,
      "샀": 7476,
      "##소시엄": 7477,
      "단단": 7478,
      "##학원": 7479,
      "드러난": 7480,
      "인성": 7481,
      "대법관": 7482,
      "돋보이": 7483,
      "서서": 7484,
      "데이트": 7485,
      "LI": 7486,
      "정관": 7487,
      "관계없이": 7488,
      "신작": 7489,
      "나스": 7490,
      "보컬": 7491,
      "##업원": 7492,
      "축적": 7493,
      "##들인": 7494,
      "자가": 7495,
      "인건비": 7496,
      "신생": 7497,
      "경유": 7498,
      "먹거리": 7499,
      "총무": 7500,
      "한결": 7501,
      "##걸음": 7502,
      "##사랑": 7503,
      "##ri": 7504,
      "계승": 7505,
      "상관없이": 7506,
      "PS": 7507,
      "애플리케이션": 7508,
      "사령부": 7509,
      "어릴": 7510,
      "자세히": 7511,
      "성폭력": 7512,
      "톡톡": 7513,
      "몰래": 7514,
      "그렇지만": 7515,
      "중복": 7516,
      "여름철": 7517,
      "곱": 7518,
      "리듬": 7519,
      "장병": 7520,
      "배후": 7521,
      "놀라운": 7522,
      "환호": 7523,
      "##MA": 7524,
      "블룸": 7525,
      "불러일으": 7526,
      "치킨": 7527,
      "전교조": 7528,
      "##저축": 7529,
      "##지노": 7530,
      "팔레스타인": 7531,
      "육박": 7532,
      "머무": 7533,
      "사임": 7534,
      "트랙": 7535,
      "미네": 7536,
      "레알": 7537,
      "개막전": 7538,
      "##ack": 7539,
      "양해": 7540,
      "기획재정부": 7541,
      "##코스": 7542,
      "대수": 7543,
      "##야마": 7544,
      "##협정": 7545,
      "이력": 7546,
      "##온다": 7547,
      "외식": 7548,
      "##렉션": 7549,
      "기세": 7550,
      "모스크바": 7551,
      "맨체스터": 7552,
      "일체": 7553,
      "밀집": 7554,
      "접어들": 7555,
      "##이도": 7556,
      "성남시": 7557,
      "김제": 7558,
      "김인": 7559,
      "한동안": 7560,
      "드립니다": 7561,
      "바퀴": 7562,
      "필자": 7563,
      "배운": 7564,
      "으려는": 7565,
      "경사": 7566,
      "학대": 7567,
      "동호": 7568,
      "##ace": 7569,
      "꽂": 7570,
      "##구리": 7571,
      "대전시": 7572,
      "휩싸": 7573,
      "인조": 7574,
      "소액": 7575,
      "외화": 7576,
      "나빠": 7577,
      "쇼트": 7578,
      "계정": 7579,
      "도망": 7580,
      "##ard": 7581,
      "##텐트": 7582,
      "휴일": 7583,
      "188": 7584,
      "오류": 7585,
      "요법": 7586,
      "##오스": 7587,
      "캠핑": 7588,
      "##밀리": 7589,
      "라인업": 7590,
      "112": 7591,
      "에피": 7592,
      "유승민": 7593,
      "##ve": 7594,
      "안녕": 7595,
      "블라": 7596,
      "궤도": 7597,
      "햄": 7598,
      "SS": 7599,
      "까닭": 7600,
      "바지": 7601,
      "엘지": 7602,
      "연이": 7603,
      "혼합": 7604,
      "우대": 7605,
      "실체": 7606,
      "자외선": 7607,
      "으려고": 7608,
      "타이거": 7609,
      "신년": 7610,
      "화상": 7611,
      "객실": 7612,
      "미쳤": 7613,
      "서장": 7614,
      "이득": 7615,
      "속속": 7616,
      "덤": 7617,
      "소모": 7618,
      "서서히": 7619,
      "긴장감": 7620,
      "##그래": 7621,
      "싹": 7622,
      "사료": 7623,
      "사육": 7624,
      "홈쇼핑": 7625,
      "나타난다": 7626,
      "주저": 7627,
      "휴양": 7628,
      "오사카": 7629,
      "자본주의": 7630,
      "약한": 7631,
      "일기": 7632,
      "특이": 7633,
      "##경민": 7634,
      "급성": 7635,
      "BMW": 7636,
      "##발전": 7637,
      "바쁜": 7638,
      "체질": 7639,
      "이시": 7640,
      "수요자": 7641,
      "거액": 7642,
      "주축": 7643,
      "소유자": 7644,
      "노동당": 7645,
      "달라졌": 7646,
      "척추": 7647,
      "스프링": 7648,
      "쿨": 7649,
      "##도전": 7650,
      "홍준표": 7651,
      "스태프": 7652,
      "이겼": 7653,
      "잔치": 7654,
      "택지": 7655,
      "스틸": 7656,
      "한자": 7657,
      "盧": 7658,
      "날아": 7659,
      "상하": 7660,
      "##다이": 7661,
      "탄소": 7662,
      "##루스": 7663,
      "백지": 7664,
      "법령": 7665,
      "장벽": 7666,
      "후회": 7667,
      "마이너스": 7668,
      "정교": 7669,
      "는데다": 7670,
      "걸릴": 7671,
      "합법": 7672,
      "##상공": 7673,
      "입대": 7674,
      "유희": 7675,
      "강력히": 7676,
      "지원자": 7677,
      "결의안": 7678,
      "알레": 7679,
      "배분": 7680,
      "타임스": 7681,
      "정시": 7682,
      "낙관": 7683,
      "제천": 7684,
      "호투": 7685,
      "가담": 7686,
      "손쉽": 7687,
      "TF": 7688,
      "코레일": 7689,
      "세르": 7690,
      "터져": 7691,
      "##안군": 7692,
      "즈": 7693,
      "가라": 7694,
      "힙합": 7695,
      "##투어": 7696,
      "##야말로": 7697,
      "획기": 7698,
      "한두": 7699,
      "김혜": 7700,
      "보건소": 7701,
      "글자": 7702,
      "##수기": 7703,
      "##시스트": 7704,
      "놀랐": 7705,
      "전장": 7706,
      "×": 7707,
      "##병대": 7708,
      "가산": 7709,
      "그야말로": 7710,
      "##타임스": 7711,
      "관건": 7712,
      "등기": 7713,
      "풍성": 7714,
      "오랜만": 7715,
      "웨이": 7716,
      "뚝": 7717,
      "국도": 7718,
      "##영수": 7719,
      "목록": 7720,
      "wh": 7721,
      "먼지": 7722,
      "유격": 7723,
      "학생부": 7724,
      "넉": 7725,
      "##감치": 7726,
      "##act": 7727,
      "피할": 7728,
      "도루": 7729,
      "##입니다": 7730,
      "조업": 7731,
      "아티스트": 7732,
      "무너지": 7733,
      "활기": 7734,
      "차입": 7735,
      "한방": 7736,
      "부임": 7737,
      "여가": 7738,
      "특파원": 7739,
      "고양시": 7740,
      "제로": 7741,
      "##라비아": 7742,
      "넥슨": 7743,
      "약점": 7744,
      "과다": 7745,
      "##저축은행": 7746,
      "##밸리": 7747,
      "좌파": 7748,
      "ml": 7749,
      "##테랑": 7750,
      "발판": 7751,
      "실사": 7752,
      "흥분": 7753,
      "시한": 7754,
      "시켜야": 7755,
      "파고": 7756,
      "개조": 7757,
      "악기": 7758,
      "성취": 7759,
      "박차": 7760,
      "영구": 7761,
      "유죄": 7762,
      "히어": 7763,
      "전문점": 7764,
      "##찌감치": 7765,
      "모이": 7766,
      "후임": 7767,
      "故": 7768,
      "테니스": 7769,
      "특급": 7770,
      "KTX": 7771,
      "응용": 7772,
      "자립": 7773,
      "포스터": 7774,
      "부드러운": 7775,
      "연고": 7776,
      "운동장": 7777,
      "침대": 7778,
      "파키스탄": 7779,
      "##십자": 7780,
      "제네": 7781,
      "연안": 7782,
      "105": 7783,
      "중앙포토": 7784,
      "치아": 7785,
      "미루": 7786,
      "겨울철": 7787,
      "골자": 7788,
      "핫이슈": 7789,
      "장미": 7790,
      "연초": 7791,
      "정우": 7792,
      "금강산": 7793,
      "정해진": 7794,
      "김병현": 7795,
      "럭": 7796,
      "##GA": 7797,
      "시책": 7798,
      "해역": 7799,
      "수감": 7800,
      "국회의장": 7801,
      "우울증": 7802,
      "오스트리아": 7803,
      "##바라": 7804,
      "아름답": 7805,
      "취향": 7806,
      "재킷": 7807,
      "생긴다": 7808,
      "이끈": 7809,
      "##도어": 7810,
      "튼튼": 7811,
      "샌프": 7812,
      "##ood": 7813,
      "롯데백화점": 7814,
      "알렉": 7815,
      "깨달": 7816,
      "se": 7817,
      "달라진": 7818,
      "성균": 7819,
      "1950": 7820,
      "##어져": 7821,
      "발병": 7822,
      "공문": 7823,
      "마산": 7824,
      "챔피언스리그": 7825,
      "아닙니다": 7826,
      "정화": 7827,
      "통영": 7828,
      "박경": 7829,
      "보증금": 7830,
      "문화체육관광부": 7831,
      "##센티브": 7832,
      "엑스포": 7833,
      "파란": 7834,
      "중장기": 7835,
      "##소드": 7836,
      "윗": 7837,
      "랜드": 7838,
      "다툼": 7839,
      "ICT": 7840,
      "끊이": 7841,
      "털어놓": 7842,
      "퀴": 7843,
      "출고": 7844,
      "상시": 7845,
      "서기": 7846,
      "로선": 7847,
      "김영삼": 7848,
      "찬스": 7849,
      "##서스": 7850,
      "세균": 7851,
      "남용": 7852,
      "연동": 7853,
      "그루": 7854,
      "서귀포": 7855,
      "시골": 7856,
      "에어컨": 7857,
      "헨": 7858,
      "이효": 7859,
      "━": 7860,
      "걸그룹": 7861,
      "국외": 7862,
      "114": 7863,
      "타워": 7864,
      "구로": 7865,
      "오케스트라": 7866,
      "치명": 7867,
      "김한": 7868,
      "전주시": 7869,
      "보충": 7870,
      "##플레이션": 7871,
      "게스트": 7872,
      "국민의당": 7873,
      "적시타": 7874,
      "##브리드": 7875,
      "서브": 7876,
      "날카": 7877,
      "사교육": 7878,
      "세입": 7879,
      "폭넓": 7880,
      "다이아": 7881,
      "커뮤니케이션": 7882,
      "뱀": 7883,
      "##청사": 7884,
      "##⁄3": 7885,
      "열악": 7886,
      "첼시": 7887,
      "##대체": 7888,
      "보여줄": 7889,
      "일지": 7890,
      "컨트롤": 7891,
      "멜로": 7892,
      "가세": 7893,
      "수법": 7894,
      "오직": 7895,
      "거래량": 7896,
      "보좌관": 7897,
      "장기간": 7898,
      "##멘터리": 7899,
      "##축제": 7900,
      "로켓": 7901,
      "키워드": 7902,
      "##박스": 7903,
      "수호": 7904,
      "##놀이": 7905,
      "호전": 7906,
      "샌프란시스코": 7907,
      "젠": 7908,
      "나타날": 7909,
      "군부": 7910,
      "AS": 7911,
      "달렸": 7912,
      "까다": 7913,
      "팔리": 7914,
      "김남": 7915,
      "지장": 7916,
      "예술가": 7917,
      "회피": 7918,
      "돌아갔": 7919,
      "출하": 7920,
      "1989": 7921,
      "##레나": 7922,
      "##인드": 7923,
      "##생산": 7924,
      "이광": 7925,
      "유나이티드": 7926,
      "체육관": 7927,
      "뻗": 7928,
      "시위대": 7929,
      "##티스": 7930,
      "도지사": 7931,
      "##래도": 7932,
      "도의회": 7933,
      "##포스": 7934,
      "김창": 7935,
      "버려": 7936,
      "서방": 7937,
      "버락": 7938,
      "면모": 7939,
      "##퍼니": 7940,
      "카드사": 7941,
      "필름": 7942,
      "##걸이": 7943,
      "배수": 7944,
      "약정": 7945,
      "참전": 7946,
      "스승": 7947,
      "연평": 7948,
      "인센티브": 7949,
      "나노": 7950,
      "##페이스": 7951,
      "채취": 7952,
      "플로리": 7953,
      "구경": 7954,
      "출구": 7955,
      "나눈": 7956,
      "마스크": 7957,
      "사회주의": 7958,
      "폴리": 7959,
      "안보리": 7960,
      "라서": 7961,
      "레이저": 7962,
      "##아지": 7963,
      "##동강": 7964,
      "간주": 7965,
      "##프레": 7966,
      "수령": 7967,
      "참조": 7968,
      "폭스": 7969,
      "스캔": 7970,
      "강서": 7971,
      "예매": 7972,
      "##광역": 7973,
      "주유소": 7974,
      "가뭄": 7975,
      "##로즈": 7976,
      "강정호": 7977,
      "##미술관": 7978,
      "교재": 7979,
      "사자": 7980,
      "LPGA": 7981,
      "공감대": 7982,
      "일본군": 7983,
      "승마": 7984,
      "기업체": 7985,
      "견인": 7986,
      "흠": 7987,
      "맛있": 7988,
      "돌아와": 7989,
      "미스터": 7990,
      "잠재력": 7991,
      "폭락": 7992,
      "여왕": 7993,
      "주먹": 7994,
      "한참": 7995,
      "대지": 7996,
      "카타르": 7997,
      "오리온": 7998,
      "컨소시엄": 7999,
      "논평": 8000,
      "던진": 8001,
      "염증": 8002,
      "입수": 8003,
      "내셔널": 8004,
      "해선": 8005,
      "막아": 8006,
      "지나친": 8007,
      "##농협": 8008,
      "신입생": 8009,
      "땅볼": 8010,
      "신원": 8011,
      "풀리": 8012,
      "고의": 8013,
      "교통부": 8014,
      "쏠리": 8015,
      "체조": 8016,
      "계약서": 8017,
      "자정": 8018,
      "아마추어": 8019,
      "불행": 8020,
      "배송": 8021,
      "봅": 8022,
      "성균관": 8023,
      "##88": 8024,
      "##그러": 8025,
      "수장": 8026,
      "소식통": 8027,
      "슬라이": 8028,
      "노란": 8029,
      "유래": 8030,
      "건네": 8031,
      "경부": 8032,
      "##리조트": 8033,
      "엔트리": 8034,
      "##의료": 8035,
      "Inter": 8036,
      "단호": 8037,
      "다지": 8038,
      "人": 8039,
      "후퇴": 8040,
      "##엔터테인먼트": 8041,
      "##어버": 8042,
      "의제": 8043,
      "발송": 8044,
      "위력": 8045,
      "챔피언십": 8046,
      "무한도전": 8047,
      "맥락": 8048,
      "솔직히": 8049,
      "##ain": 8050,
      "타인": 8051,
      "저질": 8052,
      "유방": 8053,
      "##어지": 8054,
      "우량": 8055,
      "스미": 8056,
      "커질": 8057,
      "CS": 8058,
      "PM": 8059,
      "##ice": 8060,
      "위법": 8061,
      "인삼": 8062,
      "꾸려": 8063,
      "헌신": 8064,
      "##타자": 8065,
      "과반": 8066,
      "블룸버그": 8067,
      "불린다": 8068,
      "##뉴얼": 8069,
      "태세": 8070,
      "하남": 8071,
      "윤석": 8072,
      "모기": 8073,
      "x": 8074,
      "정례": 8075,
      "농어촌": 8076,
      "##키아": 8077,
      "도대체": 8078,
      "비춰": 8079,
      "김원": 8080,
      "##익수": 8081,
      "GB": 8082,
      "포상": 8083,
      "종업원": 8084,
      "가축": 8085,
      "거래일": 8086,
      "로버트": 8087,
      "##교육청": 8088,
      "광범": 8089,
      "달린": 8090,
      "되풀이": 8091,
      "지나가": 8092,
      "선동": 8093,
      "고비": 8094,
      "승차": 8095,
      "주권": 8096,
      "선명": 8097,
      "저지른": 8098,
      "영유": 8099,
      "변형": 8100,
      "장터": 8101,
      "지성": 8102,
      "데리": 8103,
      "맞물": 8104,
      "수목": 8105,
      "경연": 8106,
      "운세": 8107,
      "온실": 8108,
      "리버": 8109,
      "송파구": 8110,
      "대입": 8111,
      "모비스": 8112,
      "새마을": 8113,
      "##벤션": 8114,
      "##15": 8115,
      "분배": 8116,
      "아무래도": 8117,
      "##스포츠": 8118,
      "아름다움": 8119,
      "에드": 8120,
      "되살": 8121,
      "원산": 8122,
      "입맛": 8123,
      "압수수": 8124,
      "프로모션": 8125,
      "바위": 8126,
      "짐작": 8127,
      "치렀": 8128,
      "뛴": 8129,
      "##평군": 8130,
      "부합": 8131,
      "제주시": 8132,
      "다운로드": 8133,
      "김윤": 8134,
      "본관": 8135,
      "西": 8136,
      "it": 8137,
      "그레이": 8138,
      "##베스": 8139,
      "민자": 8140,
      "윈도우": 8141,
      "주파": 8142,
      "태양광": 8143,
      "서둘러": 8144,
      "정의당": 8145,
      "하이브리드": 8146,
      "이의": 8147,
      "총수": 8148,
      "일찌감치": 8149,
      "승무원": 8150,
      "미션": 8151,
      "열려": 8152,
      "남미": 8153,
      "유공": 8154,
      "판타": 8155,
      "김명": 8156,
      "만점": 8157,
      "각광": 8158,
      "에릭": 8159,
      "##디자인": 8160,
      "정했": 8161,
      "장거리": 8162,
      "연소": 8163,
      "감당": 8164,
      "##시민": 8165,
      "아세": 8166,
      "박진": 8167,
      "웹사이트": 8168,
      "신상": 8169,
      "인지도": 8170,
      "##ud": 8171,
      "중공": 8172,
      "유진": 8173,
      "일일이": 8174,
      "##의사": 8175,
      "에코": 8176,
      "다큐멘터리": 8177,
      "살림": 8178,
      "중형": 8179,
      "플로리다": 8180,
      "##재료": 8181,
      "위헌": 8182,
      "슬픔": 8183,
      "양심": 8184,
      "수퍼": 8185,
      "펄": 8186,
      "취미": 8187,
      "산다": 8188,
      "##바람": 8189,
      "이진": 8190,
      "##호기": 8191,
      "운수": 8192,
      "꿀": 8193,
      "만루": 8194,
      "지났": 8195,
      "놓여": 8196,
      "계급": 8197,
      "합창": 8198,
      "티셔츠": 8199,
      "##여자": 8200,
      "물고기": 8201,
      "줄곧": 8202,
      "##린다는": 8203,
      "하얀": 8204,
      "제철": 8205,
      "옮겼": 8206,
      "최후": 8207,
      "베테랑": 8208,
      "##ts": 8209,
      "페널": 8210,
      "한식": 8211,
      "디젤": 8212,
      "은메달": 8213,
      "홍수": 8214,
      "삼국": 8215,
      "##셀러": 8216,
      "##필드": 8217,
      "제작사": 8218,
      "##케이팅": 8219,
      "최희": 8220,
      "하도": 8221,
      "임의": 8222,
      "##가루": 8223,
      "차분": 8224,
      "생리": 8225,
      "구별": 8226,
      "클래스": 8227,
      "부드": 8228,
      "귀여": 8229,
      "부풀": 8230,
      "계곡": 8231,
      "세수": 8232,
      "강자": 8233,
      "관제": 8234,
      "가문": 8235,
      "전진": 8236,
      "##af": 8237,
      "스킨": 8238,
      "심상": 8239,
      "##스탄": 8240,
      "##테이너": 8241,
      "룸": 8242,
      "궁금증": 8243,
      "박지원": 8244,
      "전작": 8245,
      "##모델링": 8246,
      "##베리": 8247,
      "Th": 8248,
      "따돌": 8249,
      "웨딩": 8250,
      "누릴": 8251,
      "##모토": 8252,
      "보궐": 8253,
      "문예": 8254,
      "콘셉트": 8255,
      "여배우": 8256,
      "항만": 8257,
      "보석": 8258,
      "##RA": 8259,
      "간격": 8260,
      "모험": 8261,
      "벌인다": 8262,
      "##니지": 8263,
      "무늬": 8264,
      "나스닥": 8265,
      "부드럽": 8266,
      "중국어": 8267,
      "선대": 8268,
      "허락": 8269,
      "여학생": 8270,
      "외야": 8271,
      "수소": 8272,
      "떠올리": 8273,
      "띈": 8274,
      "손꼽": 8275,
      "페널티": 8276,
      "산지": 8277,
      "출품": 8278,
      "입소": 8279,
      "목동": 8280,
      "퇴근": 8281,
      "생선": 8282,
      "유성": 8283,
      "과열": 8284,
      "상임위": 8285,
      "##TN": 8286,
      "DNA": 8287,
      "의석": 8288,
      "에피소드": 8289,
      "한라": 8290,
      "으려면": 8291,
      "어업": 8292,
      "##얀마": 8293,
      "이럴": 8294,
      "우연히": 8295,
      "보건복지": 8296,
      "충남도": 8297,
      "시집": 8298,
      "한옥": 8299,
      "##보이": 8300,
      "전경련": 8301,
      "욕망": 8302,
      "##끄럽": 8303,
      "##아파트": 8304,
      "정계": 8305,
      "리우": 8306,
      "빛나": 8307,
      "An": 8308,
      "김구": 8309,
      "가죽": 8310,
      "##해진": 8311,
      "호랑이": 8312,
      "잘라": 8313,
      "언젠": 8314,
      "해결책": 8315,
      "##mp": 8316,
      "안겨": 8317,
      "전도": 8318,
      "that": 8319,
      "고래": 8320,
      "##스타일": 8321,
      "발상": 8322,
      "다면서": 8323,
      "질주": 8324,
      "증여": 8325,
      "졸업생": 8326,
      "위촉": 8327,
      "걸림": 8328,
      "##삼성": 8329,
      "일괄": 8330,
      "양극": 8331,
      "센서": 8332,
      "요미": 8333,
      "권장": 8334,
      "렌즈": 8335,
      "피트": 8336,
      "사양": 8337,
      "크라": 8338,
      "워크숍": 8339,
      "##리칸": 8340,
      "퇴임": 8341,
      "노르웨이": 8342,
      "서면": 8343,
      "외출": 8344,
      "##거나": 8345,
      "특보": 8346,
      "외무": 8347,
      "##스피": 8348,
      "con": 8349,
      "센터장": 8350,
      "괴롭": 8351,
      "강북": 8352,
      "##삭스": 8353,
      "상표": 8354,
      "선원": 8355,
      "섹스": 8356,
      "가까워": 8357,
      "칼럼": 8358,
      "기울여": 8359,
      "찾아보": 8360,
      "용병": 8361,
      "beta": 8362,
      "영세": 8363,
      "콜라": 8364,
      "입체": 8365,
      "소설가": 8366,
      "정재": 8367,
      "녀": 8368,
      "원자재": 8369,
      "괴산": 8370,
      "기념식": 8371,
      "해져": 8372,
      "배추": 8373,
      "의료진": 8374,
      "달콤": 8375,
      "두려워": 8376,
      "싣": 8377,
      "배웠": 8378,
      "느낀다": 8379,
      "남동": 8380,
      "장마": 8381,
      "스파이": 8382,
      "중진": 8383,
      "예쁘": 8384,
      "연비": 8385,
      "모를": 8386,
      "코칭": 8387,
      "변함": 8388,
      "MM": 8389,
      "종가": 8390,
      "##내셔널": 8391,
      "사모": 8392,
      "트리플": 8393,
      "닉": 8394,
      "만찬": 8395,
      "미얀마": 8396,
      "쓴다": 8397,
      "이치": 8398,
      "보스": 8399,
      "리바운드": 8400,
      "##망이": 8401,
      "다녔": 8402,
      "Re": 8403,
      "재학생": 8404,
      "더하": 8405,
      "동메달": 8406,
      "##ik": 8407,
      "이길": 8408,
      "월요일": 8409,
      "STX": 8410,
      "엽": 8411,
      "신곡": 8412,
      "##ment": 8413,
      "일어날": 8414,
      "쉴": 8415,
      "업적": 8416,
      "##23": 8417,
      "밀착": 8418,
      "##66": 8419,
      "석사": 8420,
      "에스케이": 8421,
      "침입": 8422,
      "##은색": 8423,
      "전북도": 8424,
      "##콜릿": 8425,
      "푸틴": 8426,
      "껍": 8427,
      "룩": 8428,
      "연체": 8429,
      "사업부": 8430,
      "물려": 8431,
      "시트": 8432,
      "그러니까": 8433,
      "애로": 8434,
      "대위": 8435,
      "##수도": 8436,
      "pj": 8437,
      "##두환": 8438,
      "신비": 8439,
      "몰렸": 8440,
      "불꽃": 8441,
      "##타워": 8442,
      "한일": 8443,
      "집착": 8444,
      "자유무역": 8445,
      "##프리카": 8446,
      "엄정": 8447,
      "전염": 8448,
      "좀처럼": 8449,
      "내세워": 8450,
      "석탄": 8451,
      "휩쓸": 8452,
      "발길": 8453,
      "격리": 8454,
      "융자": 8455,
      "##그라": 8456,
      "태극기": 8457,
      "시일": 8458,
      "다각": 8459,
      "날리": 8460,
      "아르바이트": 8461,
      "ᄀ": 8462,
      "통계청": 8463,
      "회고": 8464,
      "농담": 8465,
      "사우디": 8466,
      "의대": 8467,
      "파생": 8468,
      "요미우리": 8469,
      "멤버들": 8470,
      "유보": 8471,
      "이완": 8472,
      "펑": 8473,
      "##지오": 8474,
      "단편": 8475,
      "백제": 8476,
      "프로듀서": 8477,
      "정년": 8478,
      "공예": 8479,
      "벨트": 8480,
      "교감": 8481,
      "모른": 8482,
      "강구": 8483,
      "인제": 8484,
      "판교": 8485,
      "박희": 8486,
      "직선": 8487,
      "해운대": 8488,
      "걸림돌": 8489,
      "유병": 8490,
      "터뜨렸": 8491,
      "펼친": 8492,
      "산악": 8493,
      "매수세": 8494,
      "요령": 8495,
      "난방": 8496,
      "崔": 8497,
      "##현대": 8498,
      "모시": 8499,
      "##전당": 8500,
      "##코드": 8501,
      "##PA": 8502,
      "더라고요": 8503,
      "해변": 8504,
      "우회": 8505,
      "등재": 8506,
      "리모델링": 8507,
      "##세자": 8508,
      "다할": 8509,
      "빌리": 8510,
      "회복세": 8511,
      "1300": 8512,
      "항소심": 8513,
      "멍": 8514,
      "##한가": 8515,
      "폭염": 8516,
      "중심지": 8517,
      "어떨까": 8518,
      "후유": 8519,
      "걸맞": 8520,
      "평일": 8521,
      "드디어": 8522,
      "##내기": 8523,
      "총기": 8524,
      "압축": 8525,
      "신정": 8526,
      "##교회": 8527,
      "##전기": 8528,
      "휴게": 8529,
      "이회": 8530,
      "정형": 8531,
      "나흘": 8532,
      "랜": 8533,
      "州": 8534,
      "김미": 8535,
      "조상": 8536,
      "일수록": 8537,
      "이송": 8538,
      "박태환": 8539,
      "##56": 8540,
      "##치기": 8541,
      "유플러스": 8542,
      "오세": 8543,
      "크레": 8544,
      "금고": 8545,
      "##내리": 8546,
      "##베이터": 8547,
      "김우": 8548,
      "※": 8549,
      "카지노": 8550,
      "一": 8551,
      "막내": 8552,
      "이혜": 8553,
      "상습": 8554,
      "통로": 8555,
      "공안": 8556,
      "방문객": 8557,
      "남아공": 8558,
      "충당": 8559,
      "언젠가": 8560,
      "교부": 8561,
      "KO": 8562,
      "##68": 8563,
      "##마토": 8564,
      "다이아몬드": 8565,
      "인데요": 8566,
      "실린": 8567,
      "##자산": 8568,
      "##과이": 8569,
      "메디": 8570,
      "왕국": 8571,
      "쌍용": 8572,
      "발명": 8573,
      "두려움": 8574,
      "##에르": 8575,
      "##틀랜드": 8576,
      "퇴장": 8577,
      "이근": 8578,
      "잠깐": 8579,
      "분비": 8580,
      "창설": 8581,
      "##도르": 8582,
      "##철도": 8583,
      "연재": 8584,
      "후반기": 8585,
      "청계": 8586,
      "미스": 8587,
      "갇": 8588,
      "##노미": 8589,
      "콘텐트": 8590,
      "정규리그": 8591,
      "187": 8592,
      "핀란드": 8593,
      "안정환": 8594,
      "태권도": 8595,
      "존슨": 8596,
      "스펙": 8597,
      "추위": 8598,
      "부위원장": 8599,
      "대접": 8600,
      "실책": 8601,
      "CG": 8602,
      "김유": 8603,
      "1800": 8604,
      "환급": 8605,
      "광범위": 8606,
      "코스피지수": 8607,
      "신종": 8608,
      "룰": 8609,
      "저조": 8610,
      "루이스": 8611,
      "마늘": 8612,
      "임진": 8613,
      "결선": 8614,
      "돌아보": 8615,
      "유포": 8616,
      "화두": 8617,
      "매립": 8618,
      "계란": 8619,
      "시흥": 8620,
      "삼성그룹": 8621,
      "지법": 8622,
      "프리미어리그": 8623,
      "전락": 8624,
      "테이프": 8625,
      "음식물": 8626,
      "건국": 8627,
      "목욕": 8628,
      "betanews": 8629,
      "이어져": 8630,
      "풋": 8631,
      "대리점": 8632,
      "종일": 8633,
      "낮춰": 8634,
      "백인": 8635,
      "서울중앙지검": 8636,
      "한마": 8637,
      "##OP": 8638,
      "오승환": 8639,
      "##느리": 8640,
      "집필": 8641,
      "신조": 8642,
      "수산물": 8643,
      "쪼": 8644,
      "장교": 8645,
      "##광역시": 8646,
      "성립": 8647,
      "암살": 8648,
      "클라우드": 8649,
      "농축": 8650,
      "스케줄": 8651,
      "흰색": 8652,
      "기피": 8653,
      "##들였": 8654,
      "잔디": 8655,
      "마찰": 8656,
      "박명": 8657,
      "파동": 8658,
      "와중": 8659,
      "향기": 8660,
      "쿠폰": 8661,
      "책임감": 8662,
      "어시스트": 8663,
      "내세운": 8664,
      "꼼꼼히": 8665,
      "한양대": 8666,
      "BBC": 8667,
      "##렌지": 8668,
      "사범": 8669,
      "클릭": 8670,
      "이색": 8671,
      "더했": 8672,
      "##고리": 8673,
      "예년": 8674,
      "만료": 8675,
      "칠레": 8676,
      "순회": 8677,
      "지문": 8678,
      "DM": 8679,
      "탄압": 8680,
      "거제": 8681,
      "ES": 8682,
      "##폴리오": 8683,
      "고쳐": 8684,
      "im": 8685,
      "##센트": 8686,
      "수료": 8687,
      "선별": 8688,
      "각계": 8689,
      "간호사": 8690,
      "휘발": 8691,
      "승격": 8692,
      "색다른": 8693,
      "##11": 8694,
      "부담금": 8695,
      "중년": 8696,
      "시드니": 8697,
      "헌법재판": 8698,
      "부른": 8699,
      "광양": 8700,
      "음악회": 8701,
      "뜯": 8702,
      "였으나": 8703,
      "본지": 8704,
      "포드": 8705,
      "유격수": 8706,
      "치즈": 8707,
      "다스": 8708,
      "##홀딩스": 8709,
      "기수": 8710,
      "al": 8711,
      "음모": 8712,
      "순찰": 8713,
      "치료제": 8714,
      "##분기": 8715,
      "핑크": 8716,
      "##해운": 8717,
      "위하": 8718,
      "소아": 8719,
      "협의체": 8720,
      "익명": 8721,
      "계약금": 8722,
      "택배": 8723,
      "운용사": 8724,
      "정산": 8725,
      "라이트": 8726,
      "##브라": 8727,
      "엮": 8728,
      "수성": 8729,
      "UE": 8730,
      "선보여": 8731,
      "보람": 8732,
      "소신": 8733,
      "산출": 8734,
      "장례식": 8735,
      "공존": 8736,
      "돌아섰": 8737,
      "##하면": 8738,
      "승강장": 8739,
      "개발자": 8740,
      "▷": 8741,
      "봉투": 8742,
      "어리": 8743,
      "##oh": 8744,
      "##마르": 8745,
      "못지않": 8746,
      "든든": 8747,
      "노화": 8748,
      "늘렸": 8749,
      "울릉": 8750,
      "##젤레스": 8751,
      "더군요": 8752,
      "옐": 8753,
      "도출": 8754,
      "푸드": 8755,
      "막상": 8756,
      "##제철": 8757,
      "삼각": 8758,
      "보합": 8759,
      "영혼": 8760,
      "##ere": 8761,
      "똑같이": 8762,
      "유선": 8763,
      "소방서": 8764,
      "샐": 8765,
      "정경": 8766,
      "상봉": 8767,
      "##제일": 8768,
      "회화": 8769,
      "어긋": 8770,
      "개막식": 8771,
      "기차": 8772,
      "증액": 8773,
      "법제": 8774,
      "원로": 8775,
      "전셋": 8776,
      "그러한": 8777,
      "비로": 8778,
      "##이치": 8779,
      "누나": 8780,
      "고심": 8781,
      "##부인": 8782,
      "주민등록": 8783,
      "받아들일": 8784,
      "원형": 8785,
      "##세스": 8786,
      "남짓": 8787,
      "##ast": 8788,
      "1986": 8789,
      "김도": 8790,
      "정준": 8791,
      "줄였": 8792,
      "하차": 8793,
      "##은희": 8794,
      "초콜릿": 8795,
      "흉기": 8796,
      "분해": 8797,
      "##노트": 8798,
      "워터": 8799,
      "##장애": 8800,
      "##코올": 8801,
      "주춤": 8802,
      "케이티": 8803,
      "악성": 8804,
      "입양": 8805,
      "걸어": 8806,
      "##본부장": 8807,
      "자이언": 8808,
      "경제학": 8809,
      "경마": 8810,
      "수련": 8811,
      "편견": 8812,
      "발표회": 8813,
      "아쉬운": 8814,
      "야드": 8815,
      "하버드": 8816,
      "컷": 8817,
      "입문": 8818,
      "조례안": 8819,
      "배울": 8820,
      "직권": 8821,
      "기동": 8822,
      "##신저": 8823,
      "터뜨리": 8824,
      "동지": 8825,
      "얹": 8826,
      "아리랑": 8827,
      "취할": 8828,
      "낙동강": 8829,
      "진동": 8830,
      "형상": 8831,
      "무거운": 8832,
      "이동국": 8833,
      "실물": 8834,
      "재선": 8835,
      "MSI": 8836,
      "깨닫": 8837,
      "게이트": 8838,
      "가루": 8839,
      "교양": 8840,
      "sk": 8841,
      "우승자": 8842,
      "후계": 8843,
      "하와이": 8844,
      "왼손": 8845,
      "시진": 8846,
      "양육": 8847,
      "국무부": 8848,
      "점프": 8849,
      "싫어": 8850,
      "산업은행": 8851,
      "온천": 8852,
      "##ge": 8853,
      "최현": 8854,
      "한숨": 8855,
      "인선": 8856,
      "진보당": 8857,
      "태블릿": 8858,
      "##제품": 8859,
      "홍명": 8860,
      "호기심": 8861,
      "띈다": 8862,
      "기숙사": 8863,
      "사명": 8864,
      "##pe": 8865,
      "독려": 8866,
      "법칙": 8867,
      "##숭이": 8868,
      "협력사": 8869,
      "뒤지": 8870,
      "지형": 8871,
      "아이패드": 8872,
      "서재": 8873,
      "노릇": 8874,
      "안개": 8875,
      "초보": 8876,
      "피자": 8877,
      "체코": 8878,
      "1600": 8879,
      "도우": 8880,
      "도주": 8881,
      "이장": 8882,
      "관련자": 8883,
      "올레": 8884,
      "전두환": 8885,
      "내신": 8886,
      "마일": 8887,
      "국군": 8888,
      "연중": 8889,
      "픽": 8890,
      "남북한": 8891,
      "보물": 8892,
      "##Hz": 8893,
      "아키": 8894,
      "정책위": 8895,
      "주어진다": 8896,
      "스타디움": 8897,
      "향수": 8898,
      "##ib": 8899,
      "##제약": 8900,
      "리비아": 8901,
      "납입": 8902,
      "반군": 8903,
      "단정": 8904,
      "챙긴": 8905,
      "예의": 8906,
      "##퍼드": 8907,
      "돌풍": 8908,
      "억지": 8909,
      "새끼": 8910,
      "공청": 8911,
      "혈압": 8912,
      "예쁜": 8913,
      "##브스": 8914,
      "단절": 8915,
      "분단": 8916,
      "한복": 8917,
      "참배": 8918,
      "협력업체": 8919,
      "##곡동": 8920,
      "세인트": 8921,
      "正": 8922,
      "아메리칸": 8923,
      "권혁": 8924,
      "##랍니다": 8925,
      "들리": 8926,
      "##영화": 8927,
      "삼척": 8928,
      "##man": 8929,
      "IOC": 8930,
      "경과": 8931,
      "송금": 8932,
      "##스트리트": 8933,
      "AM": 8934,
      "##탄소": 8935,
      "나주": 8936,
      "피우": 8937,
      "소극": 8938,
      "차선": 8939,
      "보령": 8940,
      "추후": 8941,
      "##중앙회": 8942,
      "가라앉": 8943,
      "보입니다": 8944,
      "이화여대": 8945,
      "더민주": 8946,
      "한미": 8947,
      "도미": 8948,
      "끝날": 8949,
      "월간": 8950,
      "최진": 8951,
      "제조사": 8952,
      "왕복": 8953,
      "구실": 8954,
      "##테네": 8955,
      "넘어선": 8956,
      "반격": 8957,
      "아시아나": 8958,
      "관악": 8959,
      "조영": 8960,
      "호흡기": 8961,
      "서점": 8962,
      "왕자": 8963,
      "낙폭": 8964,
      "효력": 8965,
      "내야": 8966,
      "녹지": 8967,
      "이룰": 8968,
      "°": 8969,
      "반지": 8970,
      "##일러": 8971,
      "de": 8972,
      "로스앤": 8973,
      "사우디아": 8974,
      "뒤진": 8975,
      "바로잡": 8976,
      "베이비": 8977,
      "스리": 8978,
      "##교사": 8979,
      "가만": 8980,
      "취해": 8981,
      "with": 8982,
      "서해안": 8983,
      "로고": 8984,
      "함정": 8985,
      "이용객": 8986,
      "쉐": 8987,
      "##라스틱": 8988,
      "교보": 8989,
      "3500": 8990,
      "##사리": 8991,
      "##타인": 8992,
      "어두운": 8993,
      "찾아내": 8994,
      "##85": 8995,
      "기호": 8996,
      "##82": 8997,
      "##벨트": 8998,
      "말리": 8999,
      "##스토어": 9000,
      "비닐": 9001,
      "오렌지": 9002,
      "언론인": 9003,
      "인스타": 9004,
      "##44": 9005,
      "##데다": 9006,
      "hj": 9007,
      "임창": 9008,
      "긴축": 9009,
      "##ES": 9010,
      "글씨": 9011,
      "셔서": 9012,
      "파울": 9013,
      "용인시": 9014,
      "날렸": 9015,
      "컬렉션": 9016,
      "온다": 9017,
      "아메리카": 9018,
      "##트랙": 9019,
      "인문학": 9020,
      "##에프": 9021,
      "외상": 9022,
      "울리": 9023,
      "김석": 9024,
      "복권": 9025,
      "##IST": 9026,
      "무서운": 9027,
      "환수": 9028,
      "일행": 9029,
      "포트폴리오": 9030,
      "찬반": 9031,
      "##구니": 9032,
      "##iz": 9033,
      "평균자": 9034,
      "궁극": 9035,
      "마이크로소프트": 9036,
      "헤지": 9037,
      "##기금": 9038,
      "##평화": 9039,
      "벌일": 9040,
      "한국당": 9041,
      "후유증": 9042,
      "책상": 9043,
      "기하": 9044,
      "사우디아라비아": 9045,
      "선장": 9046,
      "청취": 9047,
      "전시관": 9048,
      "##창조": 9049,
      "방출": 9050,
      "속한": 9051,
      "민사": 9052,
      "##스틴": 9053,
      "주니어": 9054,
      "UEFA": 9055,
      "대항": 9056,
      "롯데마트": 9057,
      "품종": 9058,
      "규탄": 9059,
      "미생": 9060,
      "360": 9061,
      "쉼": 9062,
      "임종": 9063,
      "해태": 9064,
      "진통": 9065,
      "정문": 9066,
      "봉쇄": 9067,
      "넘긴": 9068,
      "영문": 9069,
      "SA": 9070,
      "동문": 9071,
      "##오픈": 9072,
      "농업인": 9073,
      "과천": 9074,
      "엔지니어": 9075,
      "##27": 9076,
      "수급자": 9077,
      "##여고": 9078,
      "심포": 9079,
      "드론": 9080,
      "유재석": 9081,
      "간절": 9082,
      "##워했": 9083,
      "장남": 9084,
      "사설": 9085,
      "자부심": 9086,
      "대국": 9087,
      "이세": 9088,
      "모양새": 9089,
      "법인세": 9090,
      "##자치": 9091,
      "침투": 9092,
      "후진": 9093,
      "##폴리": 9094,
      "동상": 9095,
      "드라이브": 9096,
      "흩": 9097,
      "학점": 9098,
      "경희대": 9099,
      "##콘서트": 9100,
      "이별": 9101,
      "고창": 9102,
      "정조": 9103,
      "절도": 9104,
      "미주": 9105,
      "손자": 9106,
      "##오롱": 9107,
      "##방울": 9108,
      "친분": 9109,
      "##특별": 9110,
      "커버": 9111,
      "주둔": 9112,
      "##바이오": 9113,
      "재임": 9114,
      "운동가": 9115,
      "서비스업": 9116,
      "엑스": 9117,
      "컨테이너": 9118,
      "순조": 9119,
      "소나무": 9120,
      "사외": 9121,
      "승자": 9122,
      "학사": 9123,
      "때리": 9124,
      "중학생": 9125,
      "적격": 9126,
      "스피커": 9127,
      "노원": 9128,
      "##24": 9129,
      "카라": 9130,
      "관리자": 9131,
      "주상": 9132,
      "애리": 9133,
      "##벤처": 9134,
      "엄중": 9135,
      "승계": 9136,
      "근접": 9137,
      "사라진": 9138,
      "공수": 9139,
      "단연": 9140,
      "일화": 9141,
      "##ian": 9142,
      "##55": 9143,
      "섬세": 9144,
      "발족": 9145,
      "리서치": 9146,
      "잠수함": 9147,
      "보건복지부": 9148,
      "##무소": 9149,
      "로스앤젤레스": 9150,
      "은가": 9151,
      "장중": 9152,
      "식민지": 9153,
      "##미터": 9154,
      "제동": 9155,
      "##ps": 9156,
      "어쨌": 9157,
      "통역": 9158,
      "바이올": 9159,
      "연정": 9160,
      "종사": 9161,
      "학살": 9162,
      "재차": 9163,
      "SC": 9164,
      "과실": 9165,
      "주머니": 9166,
      "낯선": 9167,
      "비유": 9168,
      "홈플러스": 9169,
      "더이상": 9170,
      "방북": 9171,
      "차종": 9172,
      "##니스탄": 9173,
      "락": 9174,
      "##고등학교": 9175,
      "##다드": 9176,
      "마법": 9177,
      "가파": 9178,
      "고액": 9179,
      "기둥": 9180,
      "배임": 9181,
      "子": 9182,
      "수익금": 9183,
      "잔류": 9184,
      "인스타그램": 9185,
      "증설": 9186,
      "##ial": 9187,
      "결실": 9188,
      "소망": 9189,
      "볶": 9190,
      "퍼지": 9191,
      "김은": 9192,
      "교도소": 9193,
      "##워서": 9194,
      "##RB": 9195,
      "고혈": 9196,
      "몰입": 9197,
      "ECB": 9198,
      "AF": 9199,
      "발부": 9200,
      "모형": 9201,
      "백두": 9202,
      "전념": 9203,
      "이코": 9204,
      "파도": 9205,
      "사이즈": 9206,
      "훌쩍": 9207,
      "신약": 9208,
      "열광": 9209,
      "잡히": 9210,
      "대본": 9211,
      "숙제": 9212,
      "요약": 9213,
      "효능": 9214,
      "항해": 9215,
      "벤츠": 9216,
      "원한다": 9217,
      "##65": 9218,
      "블로": 9219,
      "성추": 9220,
      "##IT": 9221,
      "Al": 9222,
      "##DB": 9223,
      "##net": 9224,
      "실종자": 9225,
      "신도": 9226,
      "##워야": 9227,
      "상상력": 9228,
      "新": 9229,
      "야기": 9230,
      "대략": 9231,
      "특사": 9232,
      "성금": 9233,
      "##스틱": 9234,
      "자위": 9235,
      "착한": 9236,
      "##노동당": 9237,
      "순방": 9238,
      "파이낸": 9239,
      "사표": 9240,
      "웅진": 9241,
      "##orea": 9242,
      "##안보": 9243,
      "서울역": 9244,
      "납득": 9245,
      "고치": 9246,
      "##페이": 9247,
      "감옥": 9248,
      "##양군": 9249,
      "당뇨병": 9250,
      "챙겼": 9251,
      "막강": 9252,
      "특구": 9253,
      "플랜트": 9254,
      "103": 9255,
      "농지": 9256,
      "에버": 9257,
      "네오": 9258,
      "다름없": 9259,
      "망명": 9260,
      "도매": 9261,
      "이호": 9262,
      "퀸": 9263,
      "거머": 9264,
      "양키스": 9265,
      "##러드": 9266,
      "이야말로": 9267,
      "을까요": 9268,
      "토토": 9269,
      "남산": 9270,
      "JP": 9271,
      "모순": 9272,
      "경쟁자": 9273,
      "조립": 9274,
      "옮김": 9275,
      "jh": 9276,
      "##조정": 9277,
      "##네스코": 9278,
      "극히": 9279,
      "##식간": 9280,
      "용서": 9281,
      "국영": 9282,
      "돌렸": 9283,
      "##데타": 9284,
      "밀접": 9285,
      "##악단": 9286,
      "유쾌": 9287,
      "각서": 9288,
      "꿰": 9289,
      "으리": 9290,
      "125": 9291,
      "려다": 9292,
      "내정자": 9293,
      "일본어": 9294,
      "더위": 9295,
      "바이어": 9296,
      "시진핑": 9297,
      "침략": 9298,
      "an": 9299,
      "수영장": 9300,
      "##현동": 9301,
      "기득": 9302,
      "첩": 9303,
      "신영": 9304,
      "작사": 9305,
      "공지": 9306,
      "브루": 9307,
      "치과": 9308,
      "다는데": 9309,
      "엘리트": 9310,
      "줄줄": 9311,
      "보은": 9312,
      "이만": 9313,
      "##태우": 9314,
      "비로소": 9315,
      "공통점": 9316,
      "잃어버": 9317,
      "변해": 9318,
      "카르": 9319,
      "고종": 9320,
      "할부": 9321,
      "루이": 9322,
      "한시": 9323,
      "자재": 9324,
      "이재훈": 9325,
      "SD": 9326,
      "뮌": 9327,
      "원문": 9328,
      "잭슨": 9329,
      "김세": 9330,
      "무지": 9331,
      "야마": 9332,
      "승률": 9333,
      "과징금": 9334,
      "염려": 9335,
      "아가": 9336,
      "##72": 9337,
      "이회창": 9338,
      "을수록": 9339,
      "본점": 9340,
      "헤이": 9341,
      "중소형": 9342,
      "실리콘": 9343,
      "서태": 9344,
      "꽉": 9345,
      "지방세": 9346,
      "창문": 9347,
      "크리": 9348,
      "정현": 9349,
      "끌어올리": 9350,
      "미달": 9351,
      "미쓰": 9352,
      "롯데그룹": 9353,
      "고립": 9354,
      "공립": 9355,
      "111": 9356,
      "##테르": 9357,
      "설탕": 9358,
      "##밀히": 9359,
      "##aper": 9360,
      "남다른": 9361,
      "싱크": 9362,
      "약해": 9363,
      "현수": 9364,
      "mg": 9365,
      "ETF": 9366,
      "천천": 9367,
      "찔": 9368,
      "중앙대": 9369,
      "##경기장": 9370,
      "신진": 9371,
      "민선": 9372,
      "조경": 9373,
      "연쇄": 9374,
      "오만": 9375,
      "포부": 9376,
      "희귀": 9377,
      "찾아오": 9378,
      "성원": 9379,
      "##블리": 9380,
      "착각": 9381,
      "배신": 9382,
      "상회": 9383,
      "해봤": 9384,
      "앤드": 9385,
      "제역": 9386,
      "알바": 9387,
      "피터": 9388,
      "##어내": 9389,
      "저널": 9390,
      "헝가리": 9391,
      "##의전당": 9392,
      "daero": 9393,
      "연수원": 9394,
      "저서": 9395,
      "환승": 9396,
      "부유": 9397,
      "신민": 9398,
      "vs": 9399,
      "늘릴": 9400,
      "##RI": 9401,
      "주된": 9402,
      "코오롱": 9403,
      "캐주얼": 9404,
      "단가": 9405,
      "AT": 9406,
      "입술": 9407,
      "담장": 9408,
      "애리조": 9409,
      "기다려": 9410,
      "##활약": 9411,
      "##43": 9412,
      "오키": 9413,
      "중증": 9414,
      "욕설": 9415,
      "뺀": 9416,
      "프로세서": 9417,
      "피겨": 9418,
      "##꿈치": 9419,
      "반짝": 9420,
      "##레이터": 9421,
      "##oon": 9422,
      "운반": 9423,
      "후손": 9424,
      "##보기": 9425,
      "양념": 9426,
      "기장": 9427,
      "450": 9428,
      "그만두": 9429,
      "유네스코": 9430,
      "박인": 9431,
      "115": 9432,
      "##플렉스": 9433,
      "##라이언": 9434,
      "웨스트": 9435,
      "군데": 9436,
      "##ha": 9437,
      "순식간": 9438,
      "자민련": 9439,
      "주어지": 9440,
      "##바겐": 9441,
      "##조리": 9442,
      "보류": 9443,
      "##ear": 9444,
      "##하마": 9445,
      "출루": 9446,
      "증폭": 9447,
      "서강": 9448,
      "도마": 9449,
      "규격": 9450,
      "맹활약": 9451,
      "##그리": 9452,
      "이모": 9453,
      "DS": 9454,
      "##전트": 9455,
      "플라이": 9456,
      "자영업자": 9457,
      "모토": 9458,
      "조형": 9459,
      "공청회": 9460,
      "1985": 9461,
      "안무": 9462,
      "일곱": 9463,
      "필립": 9464,
      "려던": 9465,
      "인출": 9466,
      "배기": 9467,
      "항구": 9468,
      "머니원": 9469,
      "##나미": 9470,
      "내전": 9471,
      "후지": 9472,
      "##비시": 9473,
      "손잡": 9474,
      "##일드": 9475,
      "##노스": 9476,
      "자치구": 9477,
      "상황실": 9478,
      "각지": 9479,
      "거울": 9480,
      "알코올": 9481,
      "쿠데타": 9482,
      "스캔들": 9483,
      "코엑스": 9484,
      "감싸": 9485,
      "밝힐": 9486,
      "임하": 9487,
      "지킬": 9488,
      "박병호": 9489,
      "윤상": 9490,
      "상거래": 9491,
      "엘리베이터": 9492,
      "삼성동": 9493,
      "더러": 9494,
      "##벌이": 9495,
      "##클리": 9496,
      "적성": 9497,
      "성동": 9498,
      "영수": 9499,
      "##qu": 9500,
      "문체": 9501,
      "넉넉": 9502,
      "##uc": 9503,
      "국왕": 9504,
      "로이터": 9505,
      "차라리": 9506,
      "le": 9507,
      "전승": 9508,
      "치우": 9509,
      "도시락": 9510,
      "1984": 9511,
      "##나와": 9512,
      "저가": 9513,
      "##세서리": 9514,
      "둘러보": 9515,
      "치밀": 9516,
      "사학": 9517,
      "플라스틱": 9518,
      "가늠": 9519,
      "유공자": 9520,
      "전복": 9521,
      "##오르": 9522,
      "절망": 9523,
      "출연자": 9524,
      "##에셋": 9525,
      "스타트업": 9526,
      "아마도": 9527,
      "앞섰": 9528,
      "실버": 9529,
      "##드름": 9530,
      "드릴": 9531,
      "자질": 9532,
      "##나타": 9533,
      "공소": 9534,
      "##주교": 9535,
      "as": 9536,
      "신차": 9537,
      "올라오": 9538,
      "차명": 9539,
      "조용히": 9540,
      "조종사": 9541,
      "##저씨": 9542,
      "올라섰": 9543,
      "원격": 9544,
      "취한": 9545,
      "터진": 9546,
      "京": 9547,
      "영주": 9548,
      "高": 9549,
      "##네마": 9550,
      "삐": 9551,
      "사막": 9552,
      "축사": 9553,
      "해리": 9554,
      "시크": 9555,
      "최민": 9556,
      "109": 9557,
      "등극": 9558,
      "알선": 9559,
      "재편": 9560,
      "##시트": 9561,
      "군단": 9562,
      "##으로": 9563,
      "전성기": 9564,
      "권익": 9565,
      "간첩": 9566,
      "##26": 9567,
      "사령탑": 9568,
      "산업통상": 9569,
      "DV": 9570,
      "부끄러": 9571,
      "넓히": 9572,
      "이한": 9573,
      "오른다": 9574,
      "솟": 9575,
      "##79": 9576,
      "교직원": 9577,
      "##면적": 9578,
      "법관": 9579,
      "DB": 9580,
      "여행사": 9581,
      "기미": 9582,
      "아닌지": 9583,
      "셔츠": 9584,
      "아저씨": 9585,
      "##문화재단": 9586,
      "콜롬": 9587,
      "부상자": 9588,
      "노예": 9589,
      "시연": 9590,
      "필지": 9591,
      "방통위": 9592,
      "발음": 9593,
      "십시오": 9594,
      "빅뱅": 9595,
      "##out": 9596,
      "방송국": 9597,
      "개원": 9598,
      "104": 9599,
      "에르": 9600,
      "##퀘어": 9601,
      "##age": 9602,
      "WBC": 9603,
      "세로": 9604,
      "귀가": 9605,
      "다투": 9606,
      "##암동": 9607,
      "재밌": 9608,
      "찾아볼": 9609,
      "최성": 9610,
      "NBA": 9611,
      "우즈베": 9612,
      "현대백화점": 9613,
      "드러낸": 9614,
      "공룡": 9615,
      "폭격": 9616,
      "조문": 9617,
      "수직": 9618,
      "장세": 9619,
      "각기": 9620,
      "신흥국": 9621,
      "가드": 9622,
      "애틀": 9623,
      "유신": 9624,
      "추궁": 9625,
      "엉뚱": 9626,
      "##루엔": 9627,
      "오지": 9628,
      "1982": 9629,
      "학급": 9630,
      "부하": 9631,
      "##중국": 9632,
      "##게이": 9633,
      "우리은행": 9634,
      "쌓여": 9635,
      "알렉산": 9636,
      "잇따르": 9637,
      "나이트": 9638,
      "뱃": 9639,
      "##웍스": 9640,
      "적잖": 9641,
      "맞췄": 9642,
      "새삼": 9643,
      "썩": 9644,
      "강등": 9645,
      "디스크": 9646,
      "SUV": 9647,
      "적대": 9648,
      "웃돌": 9649,
      "김동현": 9650,
      "##19": 9651,
      "적혀": 9652,
      "##우주": 9653,
      "##테이션": 9654,
      "천안시": 9655,
      "월스트리트": 9656,
      "뒤따": 9657,
      "대포": 9658,
      "계파": 9659,
      "농약": 9660,
      "##리케": 9661,
      "김현수": 9662,
      "담합": 9663,
      "기득권": 9664,
      "아마존": 9665,
      "엉덩이": 9666,
      "손목": 9667,
      "명확히": 9668,
      "요르": 9669,
      "고고": 9670,
      "사옥": 9671,
      "김신": 9672,
      "목재": 9673,
      "YG": 9674,
      "백성": 9675,
      "##76": 9676,
      "인질": 9677,
      "원심": 9678,
      "좋아한다": 9679,
      "르노": 9680,
      "무덤": 9681,
      "동방": 9682,
      "220": 9683,
      "세븐": 9684,
      "구형": 9685,
      "장원": 9686,
      "##맞이": 9687,
      "내실": 9688,
      "화질": 9689,
      "교훈": 9690,
      "불어넣": 9691,
      "real": 9692,
      "보름": 9693,
      "1900": 9694,
      "정읍": 9695,
      "만회": 9696,
      "열쇠": 9697,
      "치른다": 9698,
      "나뉜": 9699,
      "분자": 9700,
      "코믹": 9701,
      "금년": 9702,
      "대명": 9703,
      "살피": 9704,
      "천천히": 9705,
      "김보": 9706,
      "내비쳤": 9707,
      "사생활": 9708,
      "MP": 9709,
      "주시": 9710,
      "그림자": 9711,
      "##AE": 9712,
      "고층": 9713,
      "임박": 9714,
      "##드레": 9715,
      "일으켜": 9716,
      "필라": 9717,
      "숨기": 9718,
      "##과학부": 9719,
      "창원시": 9720,
      "##HD": 9721,
      "AR": 9722,
      "입성": 9723,
      "암호": 9724,
      "분수": 9725,
      "이리": 9726,
      "지식인": 9727,
      "황사": 9728,
      "원서": 9729,
      "냉동": 9730,
      "여력": 9731,
      "기르": 9732,
      "메리": 9733,
      "AC": 9734,
      "##12": 9735,
      "우아": 9736,
      "컨벤션": 9737,
      "맡겨": 9738,
      "뭉쳐": 9739,
      "방송인": 9740,
      "판타지": 9741,
      "바비": 9742,
      "영재": 9743,
      "공습": 9744,
      "강국": 9745,
      "괴물": 9746,
      "어쩌면": 9747,
      "##프라이": 9748,
      "고혈압": 9749,
      "다카": 9750,
      "이규": 9751,
      "박탈": 9752,
      "대림": 9753,
      "오찬": 9754,
      "회상": 9755,
      "하동": 9756,
      "어색": 9757,
      "뮌헨": 9758,
      "BB": 9759,
      "배급": 9760,
      "일축": 9761,
      "품격": 9762,
      "개량": 9763,
      "대의원": 9764,
      "##살이": 9765,
      "보태": 9766,
      "구급": 9767,
      "이효리": 9768,
      "마포구": 9769,
      "##75": 9770,
      "청담": 9771,
      "성당": 9772,
      "##LL": 9773,
      "사거리": 9774,
      "역동": 9775,
      "그대": 9776,
      "행성": 9777,
      "열람": 9778,
      "거실": 9779,
      "주어진": 9780,
      "일어": 9781,
      "##다임": 9782,
      "신청자": 9783,
      "하여금": 9784,
      "##혜진": 9785,
      "##네트": 9786,
      "모듈": 9787,
      "간섭": 9788,
      "꼽혔": 9789,
      "나들이": 9790,
      "화산": 9791,
      "px": 9792,
      "##포럼": 9793,
      "은폐": 9794,
      "컨퍼런스": 9795,
      "라스": 9796,
      "주파수": 9797,
      "지루": 9798,
      "위임": 9799,
      "증후군": 9800,
      "현명": 9801,
      "##오리": 9802,
      "자궁": 9803,
      "침수": 9804,
      "지휘자": 9805,
      "1100": 9806,
      "기리": 9807,
      "##17": 9808,
      "첨가": 9809,
      "화력": 9810,
      "삼성증권": 9811,
      "##우트": 9812,
      "표절": 9813,
      "王": 9814,
      "전차": 9815,
      "량": 9816,
      "금융위": 9817,
      "##무게": 9818,
      "공채": 9819,
      "강전": 9820,
      "1400": 9821,
      "로열": 9822,
      "다시피": 9823,
      "재건": 9824,
      "##천구": 9825,
      "단골": 9826,
      "유한": 9827,
      "고작": 9828,
      "##end": 9829,
      "가급": 9830,
      "##금속": 9831,
      "bp": 9832,
      "찢": 9833,
      "이국": 9834,
      "트레이닝": 9835,
      "니콜": 9836,
      "밀어붙": 9837,
      "NY": 9838,
      "##ph": 9839,
      "바쁘": 9840,
      "##클래": 9841,
      "일련": 9842,
      "오디오": 9843,
      "##바다": 9844,
      "삽입": 9845,
      "결함": 9846,
      "프레임": 9847,
      "불렸": 9848,
      "황당": 9849,
      "넓혀": 9850,
      "240": 9851,
      "##ff": 9852,
      "방망이": 9853,
      "슬로건": 9854,
      "후문": 9855,
      "##77": 9856,
      "##ner": 9857,
      "처한": 9858,
      "아이콘": 9859,
      "밀도": 9860,
      "##카운트": 9861,
      "문경": 9862,
      "서대문": 9863,
      "자책점": 9864,
      "신념": 9865,
      "##디스크": 9866,
      "##상선": 9867,
      "마구": 9868,
      "행장": 9869,
      "##팩트": 9870,
      "조망": 9871,
      "어라": 9872,
      "##티지": 9873,
      "잣": 9874,
      "경기력": 9875,
      "후원금": 9876,
      "선점": 9877,
      "올라왔": 9878,
      "귀족": 9879,
      "소독": 9880,
      "휘발유": 9881,
      "도저히": 9882,
      "효성": 9883,
      "견디": 9884,
      "아모": 9885,
      "풀려": 9886,
      "영감": 9887,
      "모친": 9888,
      "중남": 9889,
      "일으킬": 9890,
      "연전": 9891,
      "하나하나": 9892,
      "칼로리": 9893,
      "국수": 9894,
      "고구려": 9895,
      "스노": 9896,
      "카운": 9897,
      "껍질": 9898,
      "전례": 9899,
      "106": 9900,
      "아테네": 9901,
      "달래": 9902,
      "최경환": 9903,
      "클러": 9904,
      "연구자": 9905,
      "매직": 9906,
      "생활비": 9907,
      "미모": 9908,
      "##회의소": 9909,
      "외교관": 9910,
      "파손": 9911,
      "##이나": 9912,
      "##정동": 9913,
      "거둬": 9914,
      "무섭": 9915,
      "기부금": 9916,
      "시력": 9917,
      "포진": 9918,
      "영화관": 9919,
      "##18": 9920,
      "잡혀": 9921,
      "##ass": 9922,
      "분과": 9923,
      "##수수": 9924,
      "쑥": 9925,
      "서적": 9926,
      "약하": 9927,
      "내밀": 9928,
      "문항": 9929,
      "국기": 9930,
      "##퍼트": 9931,
      "하나은행": 9932,
      "##공학과": 9933,
      "내면": 9934,
      "형평": 9935,
      "그렸": 9936,
      "나눌": 9937,
      "CO": 9938,
      "가르쳐": 9939,
      "##선거": 9940,
      "##산업단지": 9941,
      "재래": 9942,
      "한신": 9943,
      "미미": 9944,
      "카리스": 9945,
      "열흘": 9946,
      "##슬림": 9947,
      "대단히": 9948,
      "영등포": 9949,
      "조속히": 9950,
      "견줘": 9951,
      "CB": 9952,
      "지갑": 9953,
      "가해자": 9954,
      "했으나": 9955,
      "스티브": 9956,
      "##축구협회": 9957,
      "##프스": 9958,
      "마술": 9959,
      "표본": 9960,
      "##경영": 9961,
      "몸무게": 9962,
      "패밀리": 9963,
      "연면적": 9964,
      "김문": 9965,
      "트랜": 9966,
      "##kw": 9967,
      "드문": 9968,
      "ks": 9969,
      "##29": 9970,
      "ELS": 9971,
      "##전선": 9972,
      "피츠": 9973,
      "양파": 9974,
      "토마토": 9975,
      "신앙": 9976,
      "##ID": 9977,
      "부를": 9978,
      "그러니": 9979,
      "부평": 9980,
      "켄": 9981,
      "바뀔": 9982,
      "노스": 9983,
      "##행정": 9984,
      "##농업": 9985,
      "海": 9986,
      "부통령": 9987,
      "노숙": 9988,
      "익히": 9989,
      "##동원": 9990,
      "해양수산": 9991,
      "##LB": 9992,
      "Un": 9993,
      "道": 9994,
      "자유무역협정": 9995,
      "야구장": 9996,
      "스티븐": 9997,
      "하청": 9998,
      "거둘": 9999,
      "소품": 10000,
      "아프가": 10001,
      "왕조": 10002,
      "액세서리": 10003,
      "##마리": 10004,
      "##루미": 10005,
      "이청": 10006,
      "##전문": 10007,
      "일부러": 10008,
      "절정": 10009,
      "취했": 10010,
      "중앙은행": 10011,
      "정자": 10012,
      "1945": 10013,
      "과외": 10014,
      "해냈": 10015,
      "마쓰": 10016,
      "이서": 10017,
      "##드라": 10018,
      "엔터": 10019,
      "내려오": 10020,
      "번영": 10021,
      "옹호": 10022,
      "친정": 10023,
      "해본": 10024,
      "닥터": 10025,
      "소치": 10026,
      "가급적": 10027,
      "강민": 10028,
      "걸까": 10029,
      "열매": 10030,
      "정장": 10031,
      "천정": 10032,
      "재기": 10033,
      "경정": 10034,
      "平": 10035,
      "##운다": 10036,
      "인자": 10037,
      "차려": 10038,
      "공신": 10039,
      "kW": 10040,
      "별개": 10041,
      "123": 10042,
      "아프가니스탄": 10043,
      "카리스마": 10044,
      "입금": 10045,
      "업자": 10046,
      "급감": 10047,
      "##걸리": 10048,
      "내세웠": 10049,
      "pro": 10050,
      "^": 10051,
      "##로라": 10052,
      "장외": 10053,
      "##루엔자": 10054,
      "건설업체": 10055,
      "다국": 10056,
      "몬스터": 10057,
      "함량": 10058,
      "##ug": 10059,
      "회로": 10060,
      "마리아": 10061,
      "평년": 10062,
      "피곤": 10063,
      "소용": 10064,
      "유수": 10065,
      "장래": 10066,
      "인플레이션": 10067,
      "동경": 10068,
      "출현": 10069,
      "성균관대": 10070,
      "두께": 10071,
      "##챌린": 10072,
      "프레스": 10073,
      "들여다보": 10074,
      "스폰": 10075,
      "올라온": 10076,
      "정보통신": 10077,
      "수중": 10078,
      "SW": 10079,
      "매번": 10080,
      "최태": 10081,
      "유기농": 10082,
      "특례": 10083,
      "웹툰": 10084,
      "유통업체": 10085,
      "##베트": 10086,
      "힐러리": 10087,
      "건데": 10088,
      "톡톡히": 10089,
      "##로우": 10090,
      "##릿수": 10091,
      "뜨거": 10092,
      "한상": 10093,
      "##45": 10094,
      "속초": 10095,
      "폭풍": 10096,
      "동해안": 10097,
      "##제이": 10098,
      "레바": 10099,
      "악용": 10100,
      "인격": 10101,
      "시국": 10102,
      "반납": 10103,
      "##목적": 10104,
      "##16": 10105,
      "부수": 10106,
      "##무실": 10107,
      "아웃도어": 10108,
      "신당": 10109,
      "성별": 10110,
      "ID": 10111,
      "웬만": 10112,
      "미터": 10113,
      "켈": 10114,
      "공보": 10115,
      "하나금융": 10116,
      "참여자": 10117,
      "즉석": 10118,
      "캄보": 10119,
      "자선": 10120,
      "##매김": 10121,
      "존스": 10122,
      "퍼져": 10123,
      "##다지": 10124,
      "토종": 10125,
      "페어": 10126,
      "마신": 10127,
      "홍대": 10128,
      "표방": 10129,
      "##단체": 10130,
      "##날레": 10131,
      "반란": 10132,
      "031": 10133,
      "##동생": 10134,
      "패러다임": 10135,
      "정대": 10136,
      "EBS": 10137,
      "퀴즈": 10138,
      "임차": 10139,
      "이코노미": 10140,
      "닐": 10141,
      "모리": 10142,
      "요르단": 10143,
      "야심": 10144,
      "가결": 10145,
      "##캠퍼스": 10146,
      "합산": 10147,
      "방과": 10148,
      "대역": 10149,
      "자리매김": 10150,
      "피칭": 10151,
      "올스타전": 10152,
      "푹": 10153,
      "경감": 10154,
      "상륙": 10155,
      "유학생": 10156,
      "빼돌": 10157,
      "##센스": 10158,
      "당정": 10159,
      "옮긴": 10160,
      "기어": 10161,
      "도피": 10162,
      "킨": 10163,
      "LIG": 10164,
      "사죄": 10165,
      "동월": 10166,
      "최장": 10167,
      "지리산": 10168,
      "##학규": 10169,
      "로맨스": 10170,
      "뛸": 10171,
      "푸르": 10172,
      "스코틀랜드": 10173,
      "이희": 10174,
      "CA": 10175,
      "돌보": 10176,
      "조카": 10177,
      "수요일": 10178,
      "한파": 10179,
      "겹쳐": 10180,
      "뽐냈": 10181,
      "회의장": 10182,
      "실세": 10183,
      "이연": 10184,
      "##orld": 10185,
      "##지엄": 10186,
      "선제골": 10187,
      "쌍둥이": 10188,
      "##58": 10189,
      "##가스": 10190,
      "자민당": 10191,
      "NA": 10192,
      "대성": 10193,
      "개표": 10194,
      "photo": 10195,
      "기뻐": 10196,
      "AFC": 10197,
      "PB": 10198,
      "미혼": 10199,
      "교복": 10200,
      "파급": 10201,
      "자본금": 10202,
      "낙하": 10203,
      "##개인": 10204,
      "이천수": 10205,
      "세액": 10206,
      "##로움": 10207,
      "캄보디아": 10208,
      "##도미": 10209,
      "강수량": 10210,
      "정답": 10211,
      "늙": 10212,
      "원숭이": 10213,
      "##의학": 10214,
      "원동": 10215,
      "##제리": 10216,
      "유망주": 10217,
      "주의보": 10218,
      "그래야": 10219,
      "모니터링": 10220,
      "귀여운": 10221,
      "중위": 10222,
      "##벅스": 10223,
      "충성": 10224,
      "대우증권": 10225,
      "소동": 10226,
      "PGA": 10227,
      "탈북자": 10228,
      "물러났": 10229,
      "반려": 10230,
      "날려": 10231,
      "심경": 10232,
      "기습": 10233,
      "##누리": 10234,
      "장윤": 10235,
      "내다보": 10236,
      "줄줄이": 10237,
      "양현": 10238,
      "불쾌": 10239,
      "1983": 10240,
      "2030": 10241,
      "설사": 10242,
      "##선수권대회": 10243,
      "마틴": 10244,
      "걸린다": 10245,
      "목요일": 10246,
      "at": 10247,
      "할당": 10248,
      "최재": 10249,
      "혼인": 10250,
      "서남": 10251,
      "정립": 10252,
      "미래에셋": 10253,
      "포로": 10254,
      "광저우": 10255,
      "##피니": 10256,
      "거꾸": 10257,
      "joong": 10258,
      "##93": 10259,
      "원피스": 10260,
      "태우": 10261,
      "찜": 10262,
      "gog": 10263,
      "감탄": 10264,
      "##시픽": 10265,
      "들어섰": 10266,
      "무안": 10267,
      "옥상": 10268,
      "일조": 10269,
      "트래": 10270,
      "달라질": 10271,
      "약품": 10272,
      "장시간": 10273,
      "악마": 10274,
      "페루": 10275,
      "##글로": 10276,
      "전향": 10277,
      "##자유": 10278,
      "엑소": 10279,
      "확진": 10280,
      "한국거래소": 10281,
      "##문화회관": 10282,
      "복면": 10283,
      "턴": 10284,
      "압구": 10285,
      "기업가": 10286,
      "무너졌": 10287,
      "콜롬비아": 10288,
      "##워치": 10289,
      "##지우": 10290,
      "단기간": 10291,
      "상장사": 10292,
      "동탄": 10293,
      "대권": 10294,
      "틀림": 10295,
      "누리집": 10296,
      "##라노": 10297,
      "부결": 10298,
      "##태평양": 10299,
      "##ire": 10300,
      "추방": 10301,
      "고아": 10302,
      "연주자": 10303,
      "식구": 10304,
      "봉사단": 10305,
      "우즈베키스탄": 10306,
      "토너": 10307,
      "보답": 10308,
      "차이나": 10309,
      "한다며": 10310,
      "장난감": 10311,
      "출퇴": 10312,
      "일러": 10313,
      "##크리트": 10314,
      "스코어": 10315,
      "##TC": 10316,
      "1979": 10317,
      "##36": 10318,
      "은평": 10319,
      "참으로": 10320,
      "안주": 10321,
      "말기": 10322,
      "버릴": 10323,
      "기원전": 10324,
      "나이지": 10325,
      "경합": 10326,
      "공론": 10327,
      "##애틀": 10328,
      "##다르": 10329,
      "교대": 10330,
      "타이밍": 10331,
      "레바논": 10332,
      "##ies": 10333,
      "근원": 10334,
      "맵": 10335,
      "보직": 10336,
      "원산지": 10337,
      "표적": 10338,
      "한국전쟁": 10339,
      "천장": 10340,
      "산타": 10341,
      "쌍용차": 10342,
      "국책": 10343,
      "구해": 10344,
      "신예": 10345,
      "##화물": 10346,
      "동명": 10347,
      "주지사": 10348,
      "애인": 10349,
      "타이틀곡": 10350,
      "브로드": 10351,
      "##부상": 10352,
      "나이지리아": 10353,
      "##61": 10354,
      "정점": 10355,
      "리처": 10356,
      "다가가": 10357,
      "전한다": 10358,
      "담화": 10359,
      "아바": 10360,
      "FRB": 10361,
      "부의장": 10362,
      "##paper": 10363,
      "홍명보": 10364,
      "카카오톡": 10365,
      "순차": 10366,
      "오로지": 10367,
      "외형": 10368,
      "天": 10369,
      "그러다": 10370,
      "아이유": 10371,
      "도장": 10372,
      "늑": 10373,
      "##리지": 10374,
      "비틀": 10375,
      "영예": 10376,
      "행렬": 10377,
      "방면": 10378,
      "Pro": 10379,
      "부속": 10380,
      "이점": 10381,
      "반문": 10382,
      "항암": 10383,
      "##삼진": 10384,
      "##자재": 10385,
      "소멸": 10386,
      "##겨운": 10387,
      "택했": 10388,
      "강성": 10389,
      "빠질": 10390,
      "스쿨": 10391,
      "마사지": 10392,
      "트로피": 10393,
      "봅니다": 10394,
      "거꾸로": 10395,
      "단서": 10396,
      "찾아와": 10397,
      "##미르": 10398,
      "포즈": 10399,
      "되돌아": 10400,
      "##국제공항": 10401,
      "묘지": 10402,
      "사무국": 10403,
      "뽀": 10404,
      "약국": 10405,
      "인플루엔자": 10406,
      "##아산": 10407,
      "멸종": 10408,
      "염색": 10409,
      "담겼": 10410,
      "사이클": 10411,
      "폼": 10412,
      "부담감": 10413,
      "느냐고": 10414,
      "아토": 10415,
      "가져가": 10416,
      "대책위": 10417,
      "분별": 10418,
      "나간다": 10419,
      "일간지": 10420,
      "하도급": 10421,
      "##오카": 10422,
      "하드웨어": 10423,
      "영농": 10424,
      "박대로": 10425,
      "어지": 10426,
      "##모어": 10427,
      "뮤지션": 10428,
      "당진": 10429,
      "냉각": 10430,
      "##합니다": 10431,
      "실려": 10432,
      "##금자리": 10433,
      "요시": 10434,
      "결별": 10435,
      "동성애": 10436,
      "겹치": 10437,
      "FO": 10438,
      "탐지": 10439,
      "남원": 10440,
      "128": 10441,
      "파기": 10442,
      "주무": 10443,
      "이통": 10444,
      "그랑": 10445,
      "히어로즈": 10446,
      "복사": 10447,
      "적힌": 10448,
      "떠오른": 10449,
      "스러웠": 10450,
      "막바지": 10451,
      "사무국장": 10452,
      "여드름": 10453,
      "일대비": 10454,
      "##리자": 10455,
      "성명서": 10456,
      "미사": 10457,
      "완주": 10458,
      "헤딩": 10459,
      "패했": 10460,
      "당첨자": 10461,
      "최희섭": 10462,
      "추이": 10463,
      "이철": 10464,
      "면역력": 10465,
      "으리라": 10466,
      "나카": 10467,
      "해치": 10468,
      "둬": 10469,
      "길거리": 10470,
      "양주": 10471,
      "##즈니": 10472,
      "원더": 10473,
      "##63": 10474,
      "은하": 10475,
      "퀄": 10476,
      "해병대": 10477,
      "무언": 10478,
      "파병": 10479,
      "요코": 10480,
      "터졌": 10481,
      "직결": 10482,
      "오토바이": 10483,
      "리베": 10484,
      "놓인": 10485,
      "시애틀": 10486,
      "대동": 10487,
      "이승만": 10488,
      "지켜야": 10489,
      "시야": 10490,
      "##HA": 10491,
      "하경민": 10492,
      "포천": 10493,
      "hy": 10494,
      "역전승": 10495,
      "##상공회의소": 10496,
      "##체국": 10497,
      "도요타": 10498,
      "LS": 10499,
      "세탁기": 10500,
      "##제국": 10501,
      "정직": 10502,
      "가로막": 10503,
      "나비": 10504,
      "인양": 10505,
      "특권": 10506,
      "따위": 10507,
      "##NC": 10508,
      "강점기": 10509,
      "심야": 10510,
      "메신저": 10511,
      "시공사": 10512,
      "##보안": 10513,
      "Sh": 10514,
      "불거진": 10515,
      "매트": 10516,
      "유흥": 10517,
      "드라이버": 10518,
      "도래": 10519,
      "##ork": 10520,
      "##HO": 10521,
      "맞선": 10522,
      "가리키": 10523,
      "길러": 10524,
      "플루": 10525,
      "우상": 10526,
      "법학": 10527,
      "극찬": 10528,
      "기다렸": 10529,
      "라니": 10530,
      "친선": 10531,
      "상설": 10532,
      "전광": 10533,
      "무겁": 10534,
      "야스": 10535,
      "냉정": 10536,
      "유난": 10537,
      "헌법재판소": 10538,
      "충무": 10539,
      "어차": 10540,
      "변했": 10541,
      "메이커": 10542,
      "표했": 10543,
      "한눈": 10544,
      "중남미": 10545,
      "키웠": 10546,
      "하계": 10547,
      "곤충": 10548,
      "향했": 10549,
      "뽐내": 10550,
      "##엘라": 10551,
      "탐색": 10552,
      "1981": 10553,
      "다뤄": 10554,
      "폭등": 10555,
      "알레르기": 10556,
      "##희정": 10557,
      "달걀": 10558,
      "보고회": 10559,
      "##사태": 10560,
      "보드": 10561,
      "남경": 10562,
      "새겨": 10563,
      "##건강": 10564,
      "초상": 10565,
      "realpaper": 10566,
      "몰두": 10567,
      "조직위": 10568,
      "착오": 10569,
      "권영": 10570,
      "프란": 10571,
      "오른발": 10572,
      "##박람회": 10573,
      "이강": 10574,
      "텃": 10575,
      "합치": 10576,
      "다닌": 10577,
      "##포터": 10578,
      "외과": 10579,
      "현대그룹": 10580,
      "금방": 10581,
      "거듭나": 10582,
      "건지": 10583,
      "상고": 10584,
      "질타": 10585,
      "미지수": 10586,
      "들어설": 10587,
      "달라진다": 10588,
      "##모니": 10589,
      "무궁": 10590,
      "장갑": 10591,
      "바랍니다": 10592,
      "한껏": 10593,
      "이관": 10594,
      "##토록": 10595,
      "찾아온": 10596,
      "##ome": 10597,
      "갯": 10598,
      "그친": 10599,
      "사법부": 10600,
      "거칠": 10601,
      "내지": 10602,
      "이선": 10603,
      "일문": 10604,
      "무형": 10605,
      "##법원": 10606,
      "공정거래": 10607,
      "##ulne": 10608,
      "안기": 10609,
      "알뜰": 10610,
      "##진구": 10611,
      "joongang": 10612,
      "철폐": 10613,
      "##게임즈": 10614,
      "유류": 10615,
      "매뉴얼": 10616,
      "템": 10617,
      "오너": 10618,
      "인내": 10619,
      "사소": 10620,
      "유머": 10621,
      "보금자리": 10622,
      "간직": 10623,
      "복장": 10624,
      "풍속": 10625,
      "해양부": 10626,
      "딸기": 10627,
      "##말라": 10628,
      "미녀": 10629,
      "카를": 10630,
      "##경제부": 10631,
      "엔씨": 10632,
      "횡단": 10633,
      "거쳤": 10634,
      "내보내": 10635,
      "돌아갈": 10636,
      "나치": 10637,
      "##33": 10638,
      "세리": 10639,
      "골문": 10640,
      "러닝": 10641,
      "손학규": 10642,
      "##마이": 10643,
      "어차피": 10644,
      "잔액": 10645,
      "헨리": 10646,
      "웰빙": 10647,
      "##시즌": 10648,
      "UAE": 10649,
      "인터내셔널": 10650,
      "가꾸": 10651,
      "당직자": 10652,
      "베스트셀러": 10653,
      "##조직": 10654,
      "육체": 10655,
      "활짝": 10656,
      "호날": 10657,
      "##여겨": 10658,
      "이면": 10659,
      "오차": 10660,
      "인수위": 10661,
      "당할": 10662,
      "충고": 10663,
      "뽑혔": 10664,
      "서열": 10665,
      "휘말": 10666,
      "##tphoto": 10667,
      "yulne": 10668,
      "자유주의": 10669,
      "yulnetphoto": 10670,
      "모처럼": 10671,
      "과자": 10672,
      "거쳐야": 10673,
      "홍삼": 10674,
      "##니즘": 10675,
      "재테크": 10676,
      "##de": 10677,
      "할수록": 10678,
      "##르드": 10679,
      "넘쳐": 10680,
      "단다": 10681,
      "정류": 10682,
      "올린다": 10683,
      "자이언츠": 10684,
      "230": 10685,
      "그러므로": 10686,
      "트윈": 10687,
      "##보증": 10688,
      "박기": 10689,
      "대승": 10690,
      "양평": 10691,
      "이변": 10692,
      "토양": 10693,
      "현수막": 10694,
      "##서부": 10695,
      "##영향": 10696,
      "##환자": 10697,
      "극본": 10698,
      "토니": 10699,
      "135": 10700,
      "상점": 10701,
      "도둑": 10702,
      "모였": 10703,
      "成": 10704,
      "뱅크": 10705,
      "친근": 10706,
      "눈여겨": 10707,
      "동창": 10708,
      "황우": 10709,
      "민주노동당": 10710,
      "훈장": 10711,
      "용이": 10712,
      "##네이": 10713,
      "전속": 10714,
      "##수리": 10715,
      "해남": 10716,
      "골퍼": 10717,
      "교내": 10718,
      "지름": 10719,
      "강신": 10720,
      "초록": 10721,
[...]
